. 5653
, 3612
you 2267
i 2077
the 1911
? 1478
to 1416
a 1241
's 1218
it 973
and 878
that 841
't 769
of 720
... 626
we 601
is 573
in 566
this 540
what 512
he 486
was 470
on 457
me 429
for 395
'm 387
your 386
're 379
know 356
have 347
all 342
my 338
be 336
not 335
so 318
but 314
do 307
are 303
with 296
don 296
- 295
no 284
just 272
can 258
like 257
there 245
they 239
about 237
here 237
right 228
if 226
out 225
she 222
at 221
one 212
got 211
up 207
him 203
get 200
her 192
well 185
yeah 183
@-@ 177
! 176
his 174
think 174
now 169
who 157
from 154
were 152
did 147
an 144
going 143
how 142
back 140
go 139
why 132
come 132
time 129
gonna 129
look 129
or 128
oh 128
'll 127
when 126
good 123
want 121
us 121
didn 120
had 118
hey 118
our 117
would 117
've 115
see 109
as 109
need 107
been 104
some 101
'd 100
okay 99
then 99
take 97
could 97
really 96
will 95
guy 95
because 94
let 93
these 91
where 91
them 90
" 86
people 84
by 84
has 83
little 83
way 82
tell 78
e@@ 78
something 77
man 76
off 76
re@@ 76
say 73
two 73
doing 73
more 73
into 72
mr. 71
over 70
found 70
make 69
a@@ 69
home 68
very 68
work 66
too 66
down 65
doesn 65
-- 65
guys 64
said 64
never 64
maybe 64
only 64
any 64
find 63
uh 63
in@@ 63
help 63
last 63
es 63
call 61
mean 61
other 59
ed 59
night 59
s 58
d@@ 58
which 57
yes 57
c@@ 57
before 56
still 55
' 55
thing 55
give 54
s@@ 54
bomb 54
house 54
b@@ 53
put 53
should 53
their 53
even 52
family 52
someone 51
job 51
: 51
sure 51
day 51
thank 50
after 49
i@@ 49
de@@ 48
better 48
same 47
sorry 47
name 47
lo@@ 47
old 46
believe 46
kind 46
d. 45
nothing 45
much 45
right. 45
please 45
kill 44
di@@ 44
wait 44
harold 44
t@@ 43
st@@ 43
looks 43
thought 43
those 43
again 42
told 42
l@@ 42
wasn 42
things 42
lot 42
ing 42
ts 42
g@@ 41
great 41
talk 40
run 40
baxter 40
nice 39
con@@ 39
took 39
ma@@ 39
am 39
li@@ 39
around 39
big 38
wrong 38
must 38
first 38
real 38
three 37
done 37
ca@@ 37
case 37
own 37
away 37
anything 37
le 37
ago 37
team 37
made 36
money 36
getting 36
dead 36
love 36
hard 36
m@@ 35
than 35
left 35
f@@ 35
sikes 35
son 34
co@@ 34
place 34
p 34
p@@ 34
m 34
does 34
en@@ 34
v@@ 34
l 34
head 34
watch 34
fiona 34
years 33
un@@ 33
y 33
um 33
guess 33
room 33
being 33
new 32
ti@@ 32
le@@ 32
looking 32
always 32
through 32
mi@@ 32
se 32
bad 32
world 32
raph 32
trying 31
an@@ 31
life 30
wanna 30
ta@@ 30
working 30
c 30
everything 30
er 30
wanted 30
enough 30
u@@ 30
end 30
without 30
er@@ 30
wouldn 30
friends 30
casey 30
blood 30
monster 30
; 29
r@@ 29
me@@ 29
may 29
su@@ 29
pa@@ 29
ly 29
ac@@ 29
every 29
sir 29
ting 29
killed 29
yeah. 29
ri@@ 29
talking 28
ab@@ 28
went 28
leave 28
might 28
ate 28
t 28
both 28
while 28
thanks 28
came 28
brother 28
keep 28
n@@ 28
happened 27
thinking 27
since 27
y. 27
ds 27
truth 27
feel 27
today 27
ve 27
dr. 27
coming 27
actually 27
no. 27
o 27
do@@ 27
another 26
k@@ 26
se@@ 26
stop 26
together 26
miss 26
th@@ 26
isn 26
d 26
ha@@ 26
ask 26
remember 26
ben 26
under 26
try 26
each 26
used 26
ever 26
e 26
ment 26
splinter 26
to@@ 25
boss 25
s. 25
won 25
bu@@ 25
question 25
view 25
anyone 25
ho@@ 25
chemistry 25
summer 25
else 24
joey 24
cops 24
telling 24
able 24
year 24
hours 24
long 24
hit 24
ba@@ 24
phone 24
husband 24
cause 24
week 24
heart 24
murder 23
patrick 23
pi@@ 23
taking 23
means 23
car 23
1@@ 23
sa@@ 23
brothers 23
hope 23
si@@ 23
com@@ 23
ted 23
whatever 23
sp@@ 23
ce 22
days 22
knew 22
no@@ 22
e. 22
huh 22
ro@@ 22
t. 22
set 22
car@@ 22
use 22
kids 22
ex@@ 22
fi@@ 22
ar@@ 22
whole 22
o@@ 22
chief 22
leo 22
or@@ 21
tion 21
best 21
until 21
na@@ 21
wife 21
st 21
saying 21
gotta 21
heard 21
red 21
already 21
also 21
problem 21
says 21
stone 21
ra@@ 21
care 21
dis@@ 21
ling 21
understand 21
du@@ 21
everyone 21
g 21
ok 21
bit 21
la@@ 21
city 21
hello 20
died 20
et 20
father 20
hell 20
de 20
pretty 20
al 20
safe 20
body 20
2 20
few 20
hands 20
start 20
shot 20
next 20
happy 20
gave 20
ea@@ 20
police 20
ps 20
show 20
high 20
ain 20
news 20
die 20
$ 20
portal 20
woman 19
office 19
patient 19
called 19
figure 19
it@@ 19
gets 19
inside 19
hand 19
forget 19
yourself 19
bo@@ 19
it. 19
cu@@ 19
story 19
shoot 19
sh@@ 19
dog 19
kaplan 19
fever 19
trent 19
ready 18
rea@@ 18
exactly 18
per@@ 18
killer 18
fine 18
im@@ 18
led 18
mo@@ 18
gone 18
ding 18
offer 18
move 18
probably 18
aren 18
el@@ 18
less 18
mind 18
ck 18
on. 18
x 18
yet 18
ter 18
ce@@ 18
death 18
check 18
sick 18
five 18
luck 18
fight 18
par@@ 18
photo 18
frankie 18
dude 18
monsters 18
winters 18
kristi 18
delgado 18
morning 17
seems 17
lie 17
tri@@ 17
trust 17
ma 17
drunk 17
re 17
ad@@ 17
ent 17
crazy 17
sta@@ 17
be@@ 17
walk 17
couple 17
ty 17
open 17
ru@@ 17
ss 17
da@@ 17
chance 17
least 17
person 17
president 17
god 17
ring 17
tu@@ 16
mom 16
supposed 16
sign 16
hear 16
ch@@ 16
myself 16
front 16
pro@@ 16
sc@@ 16
ation 16
somebody 16
listen 16
reason 16
second 16
idea 16
sound 16
couldn 16
ll@@ 16
meet 16
hurt 16
boys 16
anymore 16
jackson 16
fun 16
as@@ 16
y@@ 16
po@@ 16
catwalk 16
mikey 16
nightwatcher 16
master 16
jeremy 16
holt 16
takes 15
school 15
gu@@ 15
plan 15
tive 15
saw 15
behind 15
pull 15
business 15
pla@@ 15
top 15
makes 15
break 15
lieutenant 15
evidence 15
hair 15
change 15
bed 15
b 15
ct 15
lose 15
lost 15
lying 15
named 15
ter@@ 15
bus 15
play 15
explain 15
act 15
ance 15
playing 15
aaryn 15
foot 15
mother 14
ine 14
sometimes 14
sent 14
nobody 14
te@@ 14
morolto 14
most 14
so@@ 14
course 14
client 14
victim 14
wants 14
table 14
te 14
minutes 14
mar@@ 14
j@@ 14
report 14
gi@@ 14
ations 14
king 14
hi@@ 14
sense 14
fact 14
ci@@ 14
between 14
answer 14
ing. 14
soon 14
outside 14
seen 14
needed 14
comes 14
ful 14
definitely 14
ke 14
send 14
afraid 14
stand 14
drugs 14
n 14
ch 14
fa@@ 14
point 14
different 14
th 14
k 14
free 14
r 14
ous 14
000 14
six 14
sam 14
warrior 14
dudes 14
mitch 13
claire 13
you. 13
friend 13
mine 13
crime 13
zed 13
ge@@ 13
walked 13
months 13
on@@ 13
line 13
save 13
game 13
building 13
12 13
at@@ 13
man@@ 13
men@@ 13
ant 13
weren 13
missing 13
pre@@ 13
turns 13
search 13
sen@@ 13
light 13
pri@@ 13
easy 13
once 13
ge 13
ves 13
hold 13
ers 13
power 13
w@@ 13
minute 13
excuse 13
turned 13
sed 13
many 13
tried 13
haven 13
along 13
finally 13
eyes 13
ronnie 13
jay 13
holly 13
perry 13
looked 13
a. 13
return 13
drug 13
bleeding 13
kim 13
ses 12
framed 12
town 12
its 12
mp@@ 12
turn 12
win 12
knows 12
op@@ 12
goes 12
dad 12
em 12
brea@@ 12
w 12
security 12
boy 12
hea@@ 12
tion@@ 12
sts 12
age 12
straight 12
tions 12
har@@ 12
tip 12
5 12
star@@ 12
within 12
pu@@ 12
h 12
--@@ 12
true 12
'am 12
ence 12
pick 12
z@@ 12
bring 12
bi@@ 12
write 12
men 12
gary 12
danko 12
ons 12
leader 12
app@@ 12
mor@@ 12
matter 12
he@@ 12
quite 12
stri@@ 12
00 12
detective 12
whaley 12
megan 12
known 12
vic 12
party 12
curse 12
char@@ 11
fe@@ 11
keeping 11
ray 11
living 11
al@@ 11
giving 11
gre@@ 11
street 11
sorry. 11
ks 11
met 11
prove 11
word 11
4 11
gh@@ 11
hot 11
kid 11
stuff 11
sit 11
damn 11
girl 11
know. 11
ble 11
asked 11
clear 11
sk@@ 11
3 11
ved 11
driving 11
tor@@ 11
driver 11
black 11
3@@ 11
feeling 11
le. 11
murdered 11
scene 11
needs 11
against 11
ck@@ 11
ll 11
lls 11
learn 11
turtle 11
waiting 11
ne@@ 11
blow 11
qu@@ 11
en 11
ga@@ 11
speak 11
ded 11
ger 11
making 11
tra@@ 11
stay 11
pe@@ 11
petrelli 11
nathan 11
almost 11
brought 11
book 11
blue 11
supermodel 11
katy 11
sho@@ 11
four 11
caused 11
wound 11
alonzo 11
june 11
shift 11
casino 11
daughter 10
10 10
hire 10
er. 10
jo@@ 10
realize 10
having 10
inter@@ 10
lu@@ 10
caught 10
antonio 10
asking 10
test 10
8 10
seem 10
pulled 10
dealing 10
me. 10
floor 10
lied 10
talked 10
ked 10
door 10
gra@@ 10
stea@@ 10
4@@ 10
company 10
ssing 10
m. 10
calling 10
close 10
pped 10
sounds 10
based 10
ated 10
stole 10
girls 10
ya 10
tt@@ 10
department 10
anybody 10
trailer 10
mon@@ 10
cal 10
che@@ 10
command 10
go@@ 10
uni@@ 10
eye 10
parkman 10
matt 10
[ 10
] 10
cor@@ 10
fall 10
sh 10
everybody 10
baby 10
ms 10
weeks 10
sexual 10
shannon 10
drop 10
problems 10
1 10
seven 10
my. 10
hate 10
roof 10
dna 10
3000 10
immortal 10
jungle 10
ghost 10
statues 10
april 10
cowabunga 10
training 10
vigilante 10
13th 10
pike 10
ten@@ 9
ali@@ 9
part 9
killing 9
near 9
fine. 9
tomorrow 9
offic@@ 9
trip 9
walker 9
follow 9
tr@@ 9
neither 9
trunk 9
strange 9
worry 9
foo@@ 9
clothes 9
half 9
starting 9
fbi 9
ming 9
all@@ 9
h@@ 9
stopped 9
den@@ 9
ies 9
911 9
ving 9
holding 9
vi@@ 9
road 9
happens 9
missed 9
mouth 9
questions 9
lly 9
gro@@ 9
class 9
obviously 9
order 9
live 9
pal 9
side 9
green 9
dangerous 9
ahead 9
lity 9
sting 9
decided 9
certainly 9
ni@@ 9
weird 9
crush 9
ans 9
ters 9
hu@@ 9
catch 9
lucky 9
fast 9
ki@@ 9
hunt 9
20 9
l. 9
cut 9
alone 9
clean 9
vote 9
difficult 9
ns 9
ke@@ 9
tonight 9
fax 9
poisoned 9
bodies 9
times 9
mp 9
funny 9
pe 9
according 9
upon 9
broken 9
cra@@ 9
gotten 9
ss@@ 9
leslie 9
tyler 9
blackjack 9
simon 9
prison 8
deal 8
works 8
tank 8
ic@@ 8
law 8
charge 8
wa@@ 8
sted 8
sion 8
crap 8
ry 8
ou@@ 8
camera 8
stan@@ 8
trash 8
ob@@ 8
spend 8
br@@ 8
video 8
ang@@ 8
dea@@ 8
yed 8
broke 8
either 8
cli@@ 8
lin@@ 8
acc@@ 8
breathing 8
pl@@ 8
hey. 8
disappointed 8
fu@@ 8
dri@@ 8
friendly 8
suff@@ 8
bla@@ 8
je@@ 8
alcohol 8
happen 8
stra@@ 8
ster 8
wi@@ 8
dra@@ 8
notice 8
ings 8
good. 8
whoever 8
is@@ 8
clark 8
ys 8
ah 8
fear 8
face 8
unless 8
emo@@ 8
doctor 8
quit 8
tiv@@ 8
ther 8
finger 8
force 8
ron 8
tes 8
anti@@ 8
armed 8
mes 8
100 8
though 8
honey 8
for@@ 8
message 8
now. 8
lonely 8
sha@@ 8
rebel 8
mess 8
ver 8
arm 8
wire 8
us@@ 8
store 8
interview 8
the@@ 8
weak 8
ll. 8
small 8
ran 8
files 8
shut 8
ear@@ 8
familiar 8
join 8
bottom 8
boyfriend 8
girlfriend 8
wow 8
shes 8
les 8
market 8
tao 8
24 8
orders 8
ashes 8
cute 8
reisen 8
rest 8
responsible 8
solve 8
mer@@ 8
ms. 8
month 8
cash 8
ors 8
pattern 8
liquid 8
ties 8
2@@ 8
syndrome 8
flo@@ 8
don@@ 8
nitrogen 8
stars 8
ninjas 8
evil 8
donnie 8
sidekick 8
generals 8
sensei 8
leonardo 8
leo. 8
temper 8
closed 7
moment 7
promise 7
abby 7
handle 7
sti@@ 7
yours 7
cover 7
watching 7
mob 7
instead 7
lives 7
meeting 7
ther@@ 7
ited 7
miller 7
cop 7
ver@@ 7
theory 7
hall 7
7 7
sex 7
sex@@ 7
choose 7
fun@@ 7
coun@@ 7
charles 7
fin@@ 7
passed 7
picked 7
lled 7
thinks 7
cold 7
spent 7
helping 7
il 7
bra@@ 7
agent 7
hook 7
lling 7
rather 7
ser@@ 7
ur@@ 7
fra@@ 7
over@@ 7
per 7
remain 7
rela@@ 7
min@@ 7
ard 7
situation 7
ying 7
ched 7
mask 7
later 7
yes. 7
push 7
gr@@ 7
control 7
ju@@ 7
expect 7
sleep 7
absolutely 7
special 7
gged 7
wn 7
tea@@ 7
folks 7
trigger 7
seeing 7
ld 7
tly 7
uncle 7
ee@@ 7
several 7
strong 7
% 7
human 7
man. 7
lea@@ 7
fault 7
oo@@ 7
ban@@ 7
sitting 7
cep@@ 7
ls 7
bunch 7
appreciate 7
song 7
water 7
tics 7
attention 7
der 7
dy 7
feet 7
sending 7
yep 7
wers 7
lady 7
hotel 7
crowd 7
loved 7
ass 7
hmm 7
earth 7
senator 7
ty@@ 7
weapon 7
picture 7
anyway 7
sell 7
become 7
myth 7
lived 7
guessing 7
home@@ 7
lead 7
given 7
ned 7
york 7
han@@ 7
att@@ 7
america 7
ran@@ 7
biggest 7
kidding 7
married 7
jacki 7
stru@@ 7
felt 7
pictures 7
comfortable 7
especially 7
enjoy 7
welcome 7
ges 7
finish 7
doris 7
johnson 7
except 7
med 7
provenza 7
chi@@ 7
sergeant 7
manager 7
file 7
insane 7
nu@@ 7
arrest 7
5@@ 7
ating 7
ten 7
figured 7
okay. 7
bea@@ 7
200 7
witnesses 7
nope 7
born 7
dance 7
skin 7
6 7
busy 7
written 7
items 7
papers 7
guns 7
honor 7
general 7
ky 7
turtles 7
alley 7
vegas 7
dealer 7
pawned 7
wish 6
bitch 6
seriously 6
serious 6
lawyer 6
whose 6
decision 6
running 6
nowhere 6
fair 6
dark 6
inv@@ 6
innocent 6
ite 6
als 6
bs 6
pulling 6
ble@@ 6
imp@@ 6
dre@@ 6
likely 6
possible 6
trouble 6
fy 6
bar@@ 6
piece 6
children 6
wilson 6
ger@@ 6
pic@@ 6
agree 6
numbers 6
ledger 6
simply 6
oun@@ 6
id 6
burned 6
out. 6
trac@@ 6
warn 6
him. 6
federal 6
signed 6
log 6
involved 6
rift 6
future 6
under@@ 6
oper@@ 6
gambling 6
listening 6
tting 6
guilty 6
such 6
claims 6
her@@ 6
respect 6
loyalty 6
respon@@ 6
repor@@ 6
hang 6
caller 6
nervous 6
en. 6
treatment 6
coll@@ 6
spoke 6
shape 6
kills 6
some@@ 6
voice 6
believ@@ 6
cur@@ 6
int@@ 6
hearing 6
dom 6
go. 6
bear 6
stin@@ 6
male 6
smell 6
cre@@ 6
ction 6
witness 6
pain 6
gar@@ 6
ning 6
tic 6
lightman 6
cha@@ 6
clyde 6
classroom 6
information 6
damage 6
sniper 6
sing 6
mrs. 6
warrant 6
late 6
guitar 6
enter@@ 6
hiding 6
cr@@ 6
radio 6
pp@@ 6
ren@@ 6
seat 6
standing 6
mistake 6
clock 6
type 6
'@@ 6
7@@ 6
spot 6
us. 6
important 6
ets 6
drive 6
mention 6
ic 6
van 6
ze 6
sig@@ 6
spira@@ 6
proce@@ 6
bye 6
step 6
guys. 6
promised 6
doyle 6
hun@@ 6
peter 6
checked 6
san@@ 6
touch 6
tou@@ 6
gabriel 6
disa@@ 6
personal 6
indi@@ 6
throw 6
wing 6
ound 6
surprised 6
ging 6
longer 6
ity 6
mm 6
beautiful 6
dominic 6
models 6
lic 6
anywhere 6
ended 6
hired 6
ideas 6
gs 6
cked 6
started 6
tac@@ 6
worked 6
eight 6
noticed 6
number 6
certificates 6
11 6
victims 6
nursing 6
hi 6
nurse 6
minute. 6
often 6
cla@@ 6
positive 6
arsenic 6
rob@@ 6
cared 6
ner 6
hardly 6
ate@@ 6
low 6
ary 6
hall@@ 6
favorite 6
somewhere 6
mus@@ 6
past 6
abortion 6
logy 6
shots 6
lee 6
stabbed 6
chisolm 6
wendy 6
bruise 6
otto 6
chestnuts 6
row 6
0 6
match 6
spo@@ 6
ack 6
wright 6
license 6
maya 6
hurry 6
cashing 6
aaa 6
up. 6
rain 6
creatures 6
brotherhood 6
yoatl 6
continue 6
legend 6
birthday 6
'neil 6
hur@@ 6
pal. 6
ninja 6
surface 6
yeager 6
ruby 6
pit 6
pierce 6
mcdeere 5
crea@@ 5
alle@@ 5
dly 5
ined 5
firm 5
ped 5
off@@ 5
insurance 5
employees 5
alive 5
nothing. 5
unfortunately 5
ward 5
personally 5
glad 5
space 5
suit 5
feels 5
tors 5
i. 5
charlotte 5
sca@@ 5
ace 5
0@@ 5
arrested 5
suitcase 5
stu@@ 5
ff@@ 5
ssed 5
puts 5
admit 5
apartment 5
5th 5
ways 5
attorney 5
otherwise 5
nah 5
elevator 5
third 5
using 5
empty 5
bag 5
smart 5
moving 5
pat@@ 5
zing 5
ist 5
spending 5
during 5
tin 5
kept 5
el 5
tru@@ 5
one. 5
camer@@ 5
drinking 5
meaning 5
consigliere 5
protec@@ 5
zes 5
surveillance 5
ins 5
cho@@ 5
gener@@ 5
shar@@ 5
competition 5
argue 5
doubt 5
land 5
bullet 5
assume 5
full 5
anonymous 5
complete 5
apparently 5
wea@@ 5
se. 5
sold 5
pills 5
scared 5
south 5
vic@@ 5
whether 5
hasn 5
rules 5
ss. 5
shi@@ 5
by. 5
fearless 5
white 5
obser@@ 5
lan@@ 5
fle@@ 5
form 5
wed 5
lies 5
drea@@ 5
suspect 5
young 5
justice 5
fo@@ 5
ates 5
qui@@ 5
vers 5
certain 5
honestly 5
terri@@ 5
gy 5
mad 5
following 5
k. 5
easier 5
kers 5
ben@@ 5
screen 5
washington 5
tractor 5
acked 5
sub@@ 5
ey 5
u 5
fre@@ 5
bur@@ 5
agents 5
torres 5
wer 5
cou@@ 5
h. 5
sme@@ 5
down@@ 5
others 5
bomb@@ 5
mary 5
dumb 5
war@@ 5
pen@@ 5
sea@@ 5
pass 5
ial 5
far 5
medi@@ 5
ood 5
flu@@ 5
ol@@ 5
games 5
frea@@ 5
ely 5
position 5
py 5
directly 5
ally 5
fully 5
cking 5
secret 5
hide 5
shouldn 5
ans@@ 5
solution 5
kin@@ 5
stupid 5
hy@@ 5
pawn 5
gui@@ 5
delivery 5
sight 5
nal 5
risk 5
tech@@ 5
bobby 5
proud 5
can@@ 5
careful 5
sn@@ 5
here. 5
net 5
barbie 5
leaving 5
dered 5
closer 5
wear 5
ching 5
cancer 5
count 5
rid 5
ele@@ 5
trans@@ 5
mped 5
whoa 5
lots 5
swim 5
tech 5
hor@@ 5
women 5
interested 5
shop 5
bro@@ 5
9@@ 5
survi@@ 5
connection 5
every@@ 5
ness 5
ctly 5
none 5
ought 5
ears 5
cy 5
tur@@ 5
rac@@ 5
stab@@ 5
jud@@ 5
roo@@ 5
tel 5
mu@@ 5
intimate 5
boy@@ 5
bor@@ 5
stephanie 5
cool 5
natural 5
beginning 5
gay 5
inspiration 5
af@@ 5
single 5
rap@@ 5
victory 5
brenda 5
tal 5
estate 5
poison 5
consistent 5
dying 5
completely 5
doe 5
hits 5
f 5
signs 5
faxed 5
track 5
complaint 5
poor 5
residents 5
forgot 5
price 5
metal 5
ld@@ 5
interest 5
night@@ 5
ster@@ 5
depression 5
exist 5
covered 5
dear 5
shooting 5
star 5
multiple 5
sol@@ 5
buffer 5
infection 5
related 5
loose 5
tin@@ 5
antidepressants 5
purse 5
.@@ 5
fla@@ 5
ddy 5
accident 5
injuries 5
ture 5
ory 5
smoke 5
screaming 5
pancreatitis 5
healthy 5
pill 5
memo 5
opening 5
allergic 5
taxi 5
sno@@ 5
dorothea 5
print 5
belong 5
robbery 5
leash 5
walking 5
became 5
ments 5
cted 5
ches 5
jane 5
kindergarten 5
stores 5
stories 5
powerful 5
tan@@ 5
loves 5
sister 5
nights 5
d.@@ 5
felix 5
cleaned 5
perhaps 5
loot 5
gene 5
te. 5
crocker 5
cage 5
analogy 5
criminals 5
well. 5
clouds 5
normal 5
person@@ 5
13 5
plans 5
an. 5
21 5
350 5
broker 5
max@@ 4
acy 4
15 4
wal@@ 4
suggests 4
comm@@ 4
gan@@ 4
ized 4
economist 4
mit 4
def@@ 4
fied 4
hel@@ 4
cannot 4
blame 4
squ@@ 4
choices 4
louis 4
released 4
run. 4
considering 4
hoping 4
schedule 4
bank 4
himself 4
tters 4
ends 4
double 4
30 4
clearly 4
clu@@ 4
restaurant 4
poker 4
lights 4
legally 4
barely 4
ounded 4
strang@@ 4
easily 4
sli@@ 4
happening 4
prosecutor 4
tight 4
any@@ 4
or. 4
uses 4
tial 4
sheets 4
anc@@ 4
books 4
counting 4
rude 4
state 4
ley 4
ven@@ 4
ious 4
ones 4
wonder 4
brings 4
tain@@ 4
nic@@ 4
likes 4
profession@@ 4
read 4
protect 4
dge 4
vo@@ 4
upset 4
desk 4
there. 4
breaking 4
ve. 4
argument 4
permission 4
assi@@ 4
speaking 4
erratic 4
officer 4
defen@@ 4
suppre@@ 4
guard 4
gue 4
apo@@ 4
't. 4
kiss 4
mostly 4
internal 4
re. 4
senior 4
virginia 4
0. 4
dy. 4
vehicle 4
shows 4
lth 4
interesting 4
filed 4
motion 4
ssi@@ 4
murder@@ 4
finding 4
nee@@ 4
description 4
breath 4
results 4
model 4
tically 4
spe@@ 4
tail 4
support 4
ttle 4
fired 4
way. 4
infor@@ 4
wh@@ 4
fic@@ 4
tional 4
ev@@ 4
miserable 4
angela 4
treasury 4
blocks 4
threat 4
gla@@ 4
blast 4
including 4
farm 4
der@@ 4
fore@@ 4
clo@@ 4
ag@@ 4
bomber 4
willing 4
oh. 4
letting 4
science 4
picking 4
traces 4
thous@@ 4
ators 4
comple@@ 4
cri@@ 4
quest 4
nor@@ 4
run@@ 4
pho@@ 4
music 4
norma@@ 4
plane 4
stuck 4
them. 4
iling 4
meantime 4
ght@@ 4
gg@@ 4
authori@@ 4
cations 4
dist@@ 4
remind 4
contr@@ 4
words 4
ill@@ 4
gal 4
proven 4
ve@@ 4
fire 4
changes 4
smile 4
laugh@@ 4
humor 4
effe@@ 4
putting 4
proof 4
allow 4
tan 4
colle@@ 4
thin 4
dd@@ 4
towards 4
machine 4
poli@@ 4
w. 4
earlier 4
tick@@ 4
vor 4
stre@@ 4
worried 4
ir@@ 4
lated 4
box 4
units 4
xed 4
device 4
sive 4
across 4
ws 4
california 4
thea@@ 4
roof@@ 4
chest 4
hero 4
kicked 4
back. 4
window 4
icide 4
dig 4
dee@@ 4
remembered 4
system 4
bri@@ 4
knock 4
ability 4
twisted 4
guests 4
fly 4
expecting 4
common 4
bit@@ 4
ality 4
prey 4
ing@@ 4
tough 4
early 4
worst 4
freeze 4
ka@@ 4
mis@@ 4
emp@@ 4
awful 4
19@@ 4
st. 4
beat 4
twice 4
thing@@ 4
low@@ 4
finished 4
hitting 4
eager 4
tested 4
shown 4
identi@@ 4
changed 4
service 4
dia@@ 4
leaves 4
inte@@ 4
ach@@ 4
gift 4
sou@@ 4
convincing 4
exc@@ 4
photos 4
irs 4
wearing 4
partner 4
marks 4
bra 4
totally 4
lau@@ 4
gh 4
iting 4
ir 4
ker 4
super@@ 4
ours 4
learning 4
wood 4
que@@ 4
uti@@ 4
dressing 4
too@@ 4
cting 4
ces 4
convince 4
circumstances 4
ern 4
deputy 4
heaven 4
overtime 4
tives 4
daniels 4
z 4
persons 4
claim 4
ford 4
afis 4
sort 4
causes 4
sto@@ 4
cate 4
cremated 4
pay 4
research 4
recognize 4
paranoid 4
diagno@@ 4
staff 4
hal@@ 4
poisoning 4
treat 4
murders 4
meds 4
bernie 4
medical 4
motive 4
dro@@ 4
paying 4
customers 4
medicaid 4
sy@@ 4
bonuses 4
dinner 4
letter 4
6@@ 4
liability 4
associ@@ 4
odd 4
list 4
explanation 4
lar@@ 4
agre@@ 4
generous 4
explained 4
misery 4
stron@@ 4
collap@@ 4
buy 4
lation 4
holes 4
grand@@ 4
history 4
mage 4
diary 4
parade 4
bing 4
a.o. 4
psy@@ 4
dialysis 4
tom@@ 4
kidnapper 4
ow@@ 4
thing. 4
crushed 4
confirm 4
page 4
ap@@ 4
toy 4
messed 4
eventually 4
asses 4
kid@@ 4
failure 4
issu@@ 4
stress 4
usually 4
possibly 4
chart 4
snow 4
swear 4
stab 4
keeps 4
chain 4
shed 4
dan@@ 4
ny 4
hat 4
wounds 4
worth 4
knocked 4
kno@@ 4
int 4
fl@@ 4
stolen 4
charity 4
lake 4
nozzle 4
brok@@ 4
buddy 4
cart 4
suspects 4
9 4
pur@@ 4
00@@ 4
robberies 4
chris 4
tast@@ 4
hyde 4
dirty 4
2b 4
centra@@ 4
unreal 4
neighborhood 4
compli@@ 4
lasagna 4
look@@ 4
y-- 4
grea@@ 4
trained 4
arch@@ 4
shredder 4
destruction 4
kikan 4
align 4
eter@@ 4
fe 4
sir. 4
carl 4
dudes. 4
2802 4
tommy 4
skate 4
pipe 4
sewer 4
dude. 4
rocke@@ 4
homeowners 4
shell 4
streng@@ 4
babe. 4
paid 4
cals 4
gel 4
pieces 4
aguila 4
clan 4
fooled 4
arise 4
kneel 4
failed 4
raphael 4
forbidden 4
dreaming 4
training. 4
jetpacks 4
train 4
ite@@ 4
karai 4
lord 4
embarrass@@ 4
student 4
junk 4
scratching 4
heads 4
roof. 4
pushy 4
amateur 4
pellets 4
forever 4
tower 4
open@@ 4
sightings 4
fella 4
college 4
tempered 4
final 4
raphael. 4
army 4
odds 4
gross. 4
together. 4
cards 4
wallet 4
seattle 4
8@@ 4
cheating 4
luis 4
simp@@ 3
spir@@ 3
ken@@ 3
cky 3
mmy 3
ged 3
repre@@ 3
ack@@ 3
trade 3
debate 3
families 3
lawyers 3
cen@@ 3
back@@ 3
alter@@ 3
sessions 3
board 3
eth@@ 3
ics 3
kissing 3
tment 3
lunch 3
liked 3
button 3
follows 3
predictable 3
excitement 3
bar 3
up@@ 3
pal@@ 3
breathalyser 3
por@@ 3
invol@@ 3
national 3
vance 3
connected 3
chicago 3
b. 3
tage 3
freight 3
bby 3
whe@@ 3
we@@ 3
ounds 3
bag@@ 3
thrown 3
ute 3
quic@@ 3
meant 3
laughter 3
rough 3
quick 3
opinion 3
ron@@ 3
xious 3
community 3
signific@@ 3
comp@@ 3
somethin 3
helps 3
lie@@ 3
wrapped 3
ator 3
pression 3
ar 3
close@@ 3
visor 3
ris@@ 3
career 3
ered 3
mb@@ 3
prison@@ 3
ice 3
lieuten@@ 3
golden 3
ctions 3
busine@@ 3
sses 3
pushed 3
aside 3
headed 3
direction 3
replac@@ 3
res 3
elimin@@ 3
reason@@ 3
ant. 3
private 3
counse@@ 3
leg@@ 3
esti@@ 3
mate 3
advice 3
40 3
r. 3
taken 3
rup@@ 3
finishing 3
stant 3
fer 3
disco@@ 3
suppor@@ 3
ce. 3
judge 3
reaction 3
angry 3
beha@@ 3
investigating 3
tired 3
divi@@ 3
split 3
deserve 3
cl@@ 3
ue 3
09 3
quiet 3
specifi@@ 3
ise 3
ked. 3
her. 3
oc@@ 3
gen@@ 3
ici@@ 3
admi@@ 3
allowed 3
connect 3
hou@@ 3
ted. 3
ven 3
tion. 3
spee@@ 3
defendant 3
mat@@ 3
record 3
out@@ 3
tory 3
yard 3
further 3
correct 3
location 3
scri@@ 3
tely 3
speeding 3
wan@@ 3
protection 3
child 3
deserves 3
corrobor@@ 3
self 3
preci@@ 3
predi@@ 3
facts 3
court 3
decide 3
district 3
ima@@ 3
night. 3
loyal 3
this. 3
cap@@ 3
sma@@ 3
ups 3
am@@ 3
too. 3
parked 3
consider 3
peace@@ 3
farmer 3
explo@@ 3
ber 3
protoco@@ 3
radius 3
situ@@ 3
flying 3
evacu@@ 3
staying 3
burea@@ 3
farm@@ 3
wait. 3
ference 3
ders 3
chaos 3
loker 3
continu@@ 3
tical 3
rates 3
far@@ 3
my@@ 3
saving 3
puppet 3
negoti@@ 3
avoid 3
discus@@ 3
sis 3
destroy 3
action 3
huge 3
anger 3
airport 3
princi@@ 3
res. 3
fe. 3
sal@@ 3
tar@@ 3
esc@@ 3
interferes 3
semb@@ 3
ort 3
racted 3
genuine 3
concert 3
freaking 3
magic 3
teams 3
engage 3
ering 3
desi@@ 3
showing 3
gun 3
deton@@ 3
switch 3
smiling 3
mber 3
prac@@ 3
finds 3
center 3
itu@@ 3
prepared 3
tially 3
gic 3
babies 3
exce@@ 3
llent 3
scar@@ 3
co 3
op 3
drink 3
accompli@@ 3
contain@@ 3
large 3
million 3
rupt 3
bir@@ 3
irving 3
cool. 3
ly@@ 3
occasionally 3
oscar 3
acting 3
older 3
reali@@ 3
fanta@@ 3
civili@@ 3
secretary 3
rent 3
terrorist 3
suspension 3
terrorists 3
squad 3
wri@@ 3
pleasure 3
ye@@ 3
knowing 3
bloo@@ 3
blo@@ 3
des 3
mom@@ 3
kicking 3
collect 3
you-- 3
custody 3
agen@@ 3
lli@@ 3
code 3
confirmed 3
wire. 3
abandoned 3
safety 3
evi@@ 3
handled 3
pushing 3
ferred 3
moments 3
wondering 3
smarter 3
ft 3
ous@@ 3
ths 3
surprise 3
comic 3
experi@@ 3
cheer@@ 3
wednesdays 3
wind 3
lt 3
grab 3
ilities 3
help@@ 3
recently 3
entire 3
disappoin@@ 3
challenge 3
enty 3
facility 3
fuzzy 3
betray 3
poin@@ 3
sur@@ 3
ents 3
gene@@ 3
ext@@ 3
expen@@ 3
incident 3
sour@@ 3
thin@@ 3
watches 3
dies 3
that. 3
bin@@ 3
ama@@ 3
immorta@@ 3
possu@@ 3
condu@@ 3
trace 3
in. 3
desp@@ 3
repe@@ 3
kes 3
warning 3
continued 3
winner 3
recei@@ 3
fashion 3
complain 3
link 3
stiff 3
eating 3
passion 3
american 3
voted 3
dy@@ 3
scre@@ 3
attitude 3
cheated 3
ul@@ 3
panel 3
clusi@@ 3
roll 3
confi@@ 3
dence 3
os 3
io 3
hurts 3
cont@@ 3
ils 3
shoo@@ 3
arti@@ 3
rocked 3
brilliant 3
toe 3
ordered 3
champagne 3
amount 3
falling 3
ssive 3
swing 3
ste@@ 3
faces 3
pop 3
pin@@ 3
ping 3
perfect 3
tor 3
rank 3
expected 3
basically 3
wall 3
intense 3
stantly 3
opened 3
herself 3
twist 3
whi@@ 3
ances 3
weight 3
shoulders 3
runway 3
showed 3
energy 3
evalu@@ 3
bl@@ 3
pose 3
senten@@ 3
differ@@ 3
ini@@ 3
style 3
elec@@ 3
perform@@ 3
lines 3
charac@@ 3
owner 3
potential 3
tz 3
kie 3
coffee 3
please. 3
listed 3
sake 3
chief. 3
escrow 3
lly@@ 3
rist 3
gentle@@ 3
sunday 3
say. 3
delusional 3
belongs 3
detec@@ 3
ney 3
morgue 3
total 3
consi@@ 3
high@@ 3
bet 3
silent 3
blah 3
hint 3
bernard 3
eat 3
prints 3
rumple@@ 3
stiltskin 3
fairy 3
friday 3
flynn 3
unch 3
interrupt 3
estab@@ 3
lish 3
ball 3
tox 3
machines 3
igno@@ 3
pping 3
au@@ 3
sy 3
rough@@ 3
oh@@ 3
termin@@ 3
deaths 3
congratula@@ 3
treating 3
confe@@ 3
town@@ 3
reported 3
rooms 3
donald 3
visitors 3
carpet 3
visit 3
psychotic 3
signatu@@ 3
est 3
country 3
records 3
reputation 3
medication 3
friend. 3
hospital 3
townsend 3
checking 3
financi@@ 3
occupancy 3
remains 3
yce 3
il@@ 3
period 3
second. 3
throat 3
analy@@ 3
gordon 3
cooper@@ 3
seemed 3
scary 3
access 3
contact 3
vacation 3
patients 3
nonsense 3
dges 3
enter 3
dropped 3
sit@@ 3
concern 3
extreme 3
unusual 3
physical 3
advantage 3
attemp@@ 3
collected 3
fourth 3
natu@@ 3
rights 3
rats 3
counts 3
degree 3
quality 3
puni@@ 3
shment 3
someplace 3
till 3
lady. 3
babe 3
pretending 3
jersey 3
surger@@ 3
bones 3
collapse 3
ature 3
py@@ 3
vie@@ 3
imagine 3
brain 3
ala@@ 3
bble 3
mri 3
tals 3
ites 3
lupus 3
fits 3
travel 3
unconscious 3
show@@ 3
gri@@ 3
cast@@ 3
bradbury 3
tube 3
owe 3
quo@@ 3
corner 3
thi@@ 3
depressed 3
inhibitors 3
forms 3
bru@@ 3
dire@@ 3
symp@@ 3
perfe@@ 3
deci@@ 3
structions 3
v 3
criminal 3
quali@@ 3
ship 3
solved 3
trea@@ 3
pe. 3
mming 3
fell 3
struc@@ 3
va@@ 3
testing 3
alcoholic 3
trauma 3
iv 3
tre@@ 3
ela 3
hid@@ 3
ddy. 3
enabling 3
lack 3
syn@@ 3
size 3
uterus 3
cates 3
shotgun 3
doms 3
ws. 3
upstairs 3
bigger 3
bath 3
recep@@ 3
bringing 3
acute 3
r.d. 3
sume 3
allergies 3
wake 3
liz 3
masters 3
began 3
horri@@ 3
recogni@@ 3
condi@@ 3
freezing 3
o.d 3
short 3
froz@@ 3
plague 3
pock@@ 3
buil@@ 3
soun@@ 3
baseball 3
cap 3
house@@ 3
burn 3
c. 3
mid@@ 3
snapped 3
duty 3
sid 3
rev@@ 3
shoulder 3
sharp 3
appears 3
35 3
clay 3
x@@ 3
gold 3
schools 3
parking 3
lif@@ 3
bus@@ 3
tab@@ 3
pan 3
stell@@ 3
nigeria 3
donor 3
sometime 3
donation 3
attack 3
passionate 3
ud 3
cks 3
redu@@ 3
pres@@ 3
lab 3
bears 3
foxy 3
text 3
hill 3
ticket 3
neverland 3
bike 3
precinct 3
mper@@ 3
poo@@ 3
slu@@ 3
roa@@ 3
kick 3
king@@ 3
teaching 3
lesson 3
tt 3
samples 3
besides 3
alien 3
lle@@ 3
unknown 3
sees 3
stick 3
woke 3
ced 3
monkey 3
filthy 3
rat 3
cell 3
grade 3
defend 3
windy 3
22 3
disturbance 3
junie 3
uniform 3
sky@@ 3
turing 3
moonlighting 3
do. 3
pressure 3
messa@@ 3
s-- 3
hearts 3
heroin 3
compu@@ 3
burglary 3
grab@@ 3
ken 3
suppose 3
beats 3
again. 3
truck 3
rel 3
appear 3
hol@@ 3
chea@@ 3
impossible 3
session 3
doubled 3
break. 3
group 3
sons 3
police. 3
servic@@ 3
place. 3
mea@@ 3
robbing 3
jones 3
draw 3
shuff@@ 3
csi 3
assa@@ 3
t-- 3
briefcase 3
cases 3
recovered 3
shirt 3
farami 3
paw@@ 3
cheat 3
speakers 3
goon 3
bullets 3
zeke 3
vor@@ 2
speci@@ 2
spen@@ 2
vise 2
aw@@ 2
disc@@ 2
ppoin@@ 2
gan 2
-@@ 2
worn 2
prosecu@@ 2
juries 2
comfor@@ 2
smar@@ 2
secon@@ 2
dden 2
side@@ 2
work@@ 2
elev@@ 2
vy 2
scen@@ 2
vaguely 2
led@@ 2
sus@@ 2
spl@@ 2
est@@ 2
inc@@ 2
visit@@ 2
morol@@ 2
tos 2
conne@@ 2
timate 2
cer@@ 2
ino 2
o. 2
convinc@@ 2
ia 2
jack@@ 2
sters 2
ently 2
var@@ 2
warrants 2
erra@@ 2
vari@@ 2
doub@@ 2
yourselves 2
ynolds 2
tal@@ 2
windows 2
xi@@ 2
wesome 2
pupp@@ 2
cation 2
rou@@ 2
yo@@ 2
sor@@ 2
vernment 2
compla@@ 2
econom@@ 2
temp@@ 2
tain 2
secre@@ 2
violent 2
cro@@ 2
sni@@ 2
pers 2
yp@@ 2
worse 2
unfortun@@ 2
posi@@ 2
clea@@ 2
sci@@ 2
tifi@@ 2
certain@@ 2
wasting 2
girl@@ 2
xth 2
worrying 2
erce 2
plain 2
cs 2
blu@@ 2
light@@ 2
won@@ 2
vest 2
。 2
butt@@ 2
psycho@@ 2
wipe 2
mean@@ 2
care@@ 2
mur@@ 2
reme@@ 2
loy@@ 2
occu@@ 2
> 2
corre@@ 2
mista@@ 2
thers 2
q 2
weakest 2
dom@@ 2
stairs 2
rity 2
wakey 2
wireless 2
“ 2
ad 2
mpa@@ 2
ig@@ 2
tw@@ 2
nment 2
dou@@ 2
mist@@ 2
dn 2
ton@@ 2
é 2
ess 2
brilli@@ 2
workout 2
onna 2
ton 2
yesterday 2
usi@@ 2
dent 2
smi@@ 2
ark 2
deser@@ 2
fri@@ 2
value 2
wheelchair 2
clai@@ 2
weet 2
joh@@ 2
vom@@ 2
adv@@ 2
certifi@@ 2
mation 2
mbers 2
bab@@ 2
sident 2
plac@@ 2
pois@@ 2
wspaper 2
wha@@ 2
delusi@@ 2
wards 2
seni@@ 2
rs 2
wering 2
questi@@ 2
bon@@ 2
yahtzee 2
lon@@ 2
supp@@ 2
poison@@ 2
just@@ 2
ef@@ 2
vie 2
cin@@ 2
temper@@ 2
consci@@ 2
verse 2
stor@@ 2
ral 2
ghting 2
ber@@ 2
50 2
za 2
you@@ 2
jer@@ 2
f. 2
kidna@@ 2
fell@@ 2
antidepress@@ 2
win@@ 2
itting 2
relea@@ 2
pared 2
weating 2
zy@@ 2
yo 2
sil@@ 2
argu@@ 2
wor@@ 2
soci@@ 2
ath 2
ere 2
alcoho@@ 2
verti@@ 2
pancrea@@ 2
patt@@ 2
perfor@@ 2
mc@@ 2
xifen 2
mo 2
spon@@ 2
nur@@ 2
spi@@ 2
wths 2
aller@@ 2
iden@@ 2
fer@@ 2
wicked 2
pper 2
winter 2
wee@@ 2
prin@@ 2
rist@@ 2
ell 2
sun@@ 2
clean@@ 2
vel 2
suspe@@ 2
ners 2
rat@@ 2
ypd 2
wider 2
ow 2
peop@@ 2
plan@@ 2
ay 2
mee@@ 2
vomit 2
ried 2
pea@@ 2
cas@@ 2
tray 2
walling 2
reci@@ 2
war 2
ana@@ 2
acce@@ 2
pt 2
sel@@ 2
j 2
nie 2
emy 2
poi@@ 2
lear@@ 2
village 2
jung@@ 2
ward. 2
yourself. 2
anci@@ 2
slee@@ 2
gl@@ 2
dir@@ 2
llo 2
weaknesses 2
venirs 2
statu@@ 2
winterscorp 2
veman 2
warmly 2
distur@@ 2
obvi@@ 2
vacations 2
mbling 2
wnup 2
brother@@ 2
ye 2
scor@@ 2
at. 2
wol 2
jetp@@ 2
wuzzy 2
ear 2
rol 2
sk 2
never@@ 2
cle 2
rema@@ 2
om@@ 2
birth@@ 2
weird. 2
schoo@@ 2
nightwatch@@ 2
wooden 2
ital 2
vive 2
ssions 2
vailable 2
inten@@ 2
pr@@ 2
ince 2
ween 2
impor@@ 2
gree 2
ie 2
stic@@ 2
swi@@ 2
vortex 2
winters. 2
hon@@ 2
concer@@ 2
immor@@ 2
warriors 2
apri@@ 2
spea@@ 2
chan@@ 2
follow@@ 2
pos@@ 2
yae@@ 2
yer 2
ust 2
— 2
versary 2
deb@@ 2
valuable 2
whack 2
dea 2
wnshop 2
ler 1
promi@@ 1
nes@@ 1
fami@@ 1
bel 1
ount 1
drin@@ 1
/ 1
frien@@ 1
els 1
circum@@ 1
bun@@ 1
tant 1
gor@@ 1
ush@@ 1
plea@@ 1
broth@@ 1
ants 1
vice 1
ices 1
anton@@ 1
figu@@ 1
possi@@ 1
proble@@ 1
pan@@ 1
free@@ 1
ane 1
ssion 1
predic@@ 1
gni@@ 1
lou@@ 1
our@@ 1
conv@@ 1
nit@@ 1
wise 1
ual 1
tax@@ 1
viol@@ 1
turt@@ 1
alty 1
mor 1
inclu@@ 1
dang@@ 1
lighting 1
goti@@ 1
ok@@ 1
ff 1
defin@@ 1
avo@@ 1
wer@@ 1
son@@ 1
ller 1
poten@@ 1
si 1
wo@@ 1
summ@@ 1
， 1
boo@@ 1
diff@@ 1
enjo@@ 1
ook 1
power@@ 1
dru@@ 1
petre@@ 1
key 1
liev@@ 1
fran@@ 1
yle 1
wednes@@ 1
ree 1
petrell@@ 1
auth@@ 1
choo@@ 1
… 1
mana@@ 1
mm@@ 1
tually 1
thre@@ 1
feel@@ 1
ugh@@ 1
inging 1
virgin@@ 1
absolu@@ 1
bott@@ 1
train@@ 1
mb 1
gir@@ 1
smo@@ 1
appar@@ 1
list@@ 1
definit@@ 1
ually 1
weakne@@ 1
mode@@ 1
competi@@ 1
part@@ 1
coo@@ 1
para@@ 1
youn@@ 1
lawy@@ 1
rump@@ 1
.. 1
tation 1
physi@@ 1
wra@@ 1
suppo@@ 1
confir@@ 1
seri@@ 1
stilt@@ 1
trou@@ 1
fac@@ 1
yn 1
sugge@@ 1
gage 1
hood 1
lega@@ 1
law@@ 1
doc@@ 1
mark@@ 1
ught 1
schedu@@ 1
expe@@ 1
chair 1
woo@@ 1
tures 1
len 1
him@@ 1
non 1
responsi@@ 1
infe@@ 1
black@@ 1
windo@@ 1
é@@ 1
unfor@@ 1
medica@@ 1
sear@@ 1
depre@@ 1
guit@@ 1
tty 1
expla@@ 1
stent 1
cle@@ 1
what@@ 1
trau@@ 1
raid 1
ano@@ 1
ish 1
terrori@@ 1
inhibit@@ 1
with@@ 1
ple 1
lities 1
pati@@ 1
explan@@ 1
thy 1
rogen 1
shing 1
diffic@@ 1
sul@@ 1
phy@@ 1
os@@ 1
gran@@ 1
bly 1
yester@@ 1
who@@ 1
el. 1
witch 1
winter@@ 1
peri@@ 1
inj@@ 1
o.@@ 1
cally 1
ich 1
be. 1
dor@@ 1
alu@@ 1
kindergar@@ 1
hand@@ 1
hear@@ 1
scrat@@ 1
struction 1
inve@@ 1
peti@@ 1
allow@@ 1
band 1
samp@@ 1
iled 1
enti@@ 1
xy 1
ome@@ 1
vis@@ 1
begin@@ 1
les@@ 1
chestnu@@ 1
licen@@ 1
tten 1
yor@@ 1
ner@@ 1
inhi@@ 1
cts 1
lor@@ 1
cat@@ 1
less@@ 1
rying 1
stro@@ 1
trun@@ 1
pus 1
fel@@ 1
secu@@ 1
lieve 1
a.@@ 1
inner 1
oud 1
shu@@ 1
sche@@ 1
twi@@ 1
kee@@ 1
arre@@ 1
fir@@ 1
investig@@ 1
oot 1
sm@@ 1
ay. 1
den 1
rin@@ 1
gies 1
robber@@ 1
noti@@ 1
bury 1
stran@@ 1
mission 1
ult 1
fini@@ 1
fai@@ 1
gue@@ 1
kar@@ 1
scription 1
13@@ 1
distri@@ 1
kic@@ 1
zz@@ 1
ately 1
tun@@ 1
sle@@ 1
ight 1
rog@@ 1
than@@ 1
gin@@ 1
trail@@ 1
safe@@ 1
sides 1
noc@@ 1
ami 1
homeow@@ 1
sically 1
ush 1
guil@@ 1
wom@@ 1
base@@ 1
befor@@ 1
