。 5936
， 3932
的 2750
我 2345
你 2106
了 1597
？ 1464
是 1262
… 838
他 718
在 669
我们 622
不 520
— 452
好 421
吧 416
就 384
她 380
有 359
这 349
知道 348
什么 347
说 338
吗 333
都 313
那 280
很 277
他们 272
想 265
和 264
人 264
也 241
来 230
对 224
会 221
你们 216
要 214
去 205
没有 203
不是 196
让 194
给 193
个 189
！ 180
把 179
能 175
还 175
· 167
没 165
做 163
现在 159
但 157
如果 150
一个 149
被 148
这个 141
着 138
啊 136
过 134
上 127
就是 124
呢 121
里 120
所以 118
到 118
得 117
怎么 114
自己 112
谁 108
可能 106
嘿 106
看 102
那么 99
但是 99
跟 98
这些 94
先生 94
这样 92
可以 92
已经 90
因为 90
么 90
只是 89
需要 88
不会 88
事 87
发现 86
们 86
告诉 84
时候 82
听 81
从 80
而 80
哦 80
死 79
多 78
一@@ 78
觉得 77
还有 75
问题 75
不能 74
为什么 73
这么 72
走 70
又 70
像 68
真的 67
别 65
呃 65
噢 65
可 64
喜欢 63
它 63
找到 61
为 61
杀 60
那个 60
有人 60
炸弹 59
而且 59
再 58
点 58
明白 57
这里 57
帮 56
应该 56
谢谢 56
找 55
叫 54
还是 52
才 52
并 52
相信 52
回来 51
东西 51
将 51
用 50
我会 50
该 50
等 49
工作 49
中 49
一下 49
认为 49
下 48
前 48
当 47
事情 47
警察 47
“ 47
抱歉 46
” 46
出 46
一切 46
时 46
的话 46
哈罗德 46
开始 45
一起 45
这是 45
不@@ 45
孩子 45
哪 45
那些 45
不过 45
" 45
魔兽 44
朋友 43
特 43
兄弟 43
打 42
2 42
嗯 42
只 42
不要 42
后 41
地方 41
更 41
医生 41
之前 40
巴克斯 40
我要 39
然后 39
所有 39
一样 39
看看 38
太 38
出来 37
不想 37
这儿 37
本 37
有些 37
一直 37
家伙 36
也许 35
有点 35
起来 35
赛克斯 35
希望 34
子 34
问 34
想要 34
非常 34
真 33
今天 33
住 33
请 32
以为 32
等等 32
像是 32
团队 32
拉夫 32
米奇 31
钱 31
最 31
一定 31
时间 31
真是 31
名字 31
任何 31
生活 30
干 30
： 30
感觉 30
意思 30
天 30
凯西 30
利奥 30
所 29
看到 29
关于 29
回家 28
见 28
人@@ 28
为了 28
错 28
药 28
打电话 27
有@@ 27
不错 27
头 27
于 27
证明 27
最后 27
世界 27
尔 26
当然 26
我@@ 26
带 26
必须 26
家人 26
最好 26
发生 26
或者 26
很多 26
拿 26
女士 26
伙计 26
看起来 26
结束 25
之后 25
出现 25
一些 25
这种 25
离开 25
快 25
看来 25
大 25
准备 24
肯定 24
决定 24
凶手 24
年 24
爱 24
可是 24
与 24
回 24
头儿 24
疗养院 24
； 23
帕特里克 23
开 23
那@@ 23
其他 23
却 23
没错 23
怎么样 23
些 23
- 23
撒谎 23
猜 23
家 23
里面 23
倒 23
比 23
解决 23
房子 23
夏日 23
你好 22
一点 22
谋杀 22
一次 22
病人 22
马上 22
尸体 22
利 22
5 22
昨晚 22
过来 22
记得 22
咱们 21
我来 21
怎样 21
无@@ 21
清楚 21
认识 21
只有 21
地 21
证据 21
注意 21
小@@ 21
是因为 21
还好 21
那里 21
唯一 21
原因 21
是不是 21
大家 21
起 21
出去 21
看上去 21
丈夫 21
这@@ 21
6 21
菲奥娜 21
打@@ 20
乔伊 20
案子 20
手 20
大@@ 20
小 20
电话 20
行 20
不了 20
心@@ 20
力 20
向 20
确实 20
总是 20
到底 20
哥们 20
小时 20
特伦特 20
哪儿 19
托 19
两个 19
月 19
跑 19
计划 19
情况 19
心 19
女人 19
车 19
赌场 19
几个 19
儿子 19
嗨 19
得到 19
没@@ 19
以前 19
解释 19
过去 19
或许 19
照片 19
恩 19
卡普兰 19
好@@ 18
机会 18
要是 18
挺 18
安全 18
放 18
送 18
怎么回事 18
名 18
. 18
帮助 18
看着 18
性 18
掉 18
那种 18
而已 18
狗 18
死亡 18
侠 18
干嘛 17
父亲 17
样子 17
好像 17
赢 17
办公室 17
吃 17
接 17
受害人 17
有没有 17
正 17
发 17
那儿 17
根本 17
干什么 17
别人 17
搜查 17
变成 17
完全 17
总统 17
阿 17
站 17
来说 17
快点 17
弗兰基 17
石头 17
德尔加 17
一 16
身上 16
算 16
莫罗 16
不用 16
先 16
放@@ 16
进 16
上面 16
上@@ 16
继续 16
路 16
多@@ 16
者 16
之间 16
没事 16
公司 16
调查 16
表现 16
故事 16
写 16
成为 16
杰克逊 16
拜托 16
拉 16
难 16
它们 16
呀 16
永远 16
夜行 16
师父 16
杰里米 16
霍尔特 16
10 15
高兴 15
俩 15
真相 15
选择 15
早 15
不好 15
话 15
了解 15
如此 15
以 15
要求 15
曾 15
报警 15
行动 15
号 15
意味着 15
导致 15
说话 15
每个 15
那样 15
事实上 15
宝贝 15
1 15
家族 14
听说 14
甚至 14
下@@ 14
办法 14
个人 14
进来 14
全@@ 14
重要 14
两@@ 14
装 14
监控 14
三@@ 14
求 14
拿到 14
菲 14
谈谈 14
忙 14
已 14
发@@ 14
自然 14
没什么 14
打开 14
位 14
获得 14
这位 14
完成 14
是否 14
妈妈 14
失去 14
够 14
只要 14
我能 14
确定 14
危险 14
分@@ 14
老师 14
那家伙 14
真@@ 14
下来 14
拍照 14
阿林 14
房间 14
副队长 14
萨姆 14
琼 14
将军 14
21 14
克莱尔 13
陷害 13
来@@ 13
额 13
接受 13
老婆 13
说明 13
靠 13
12 13
重@@ 13
谈 13
无法 13
处理 13
新 13
报告 13
搞 13
他会 13
用@@ 13
整个 13
最大 13
改变 13
命令 13
真实 13
至少 13
部 13
中@@ 13
关系 13
手@@ 13
其实 13
手表 13
信 13
罗尼 13
杰伊 13
佩里 13
死者 13
心脏 13
骨灰 13
威利 13
伤 13
血迹 13
伤口 13
吉姆 13
另 12
对不起 12
岁 12
律师 12
要么 12
替 12
当事人 12
主意 12
收@@ 12
安@@ 12
聪明 12
显然 12
出@@ 12
门 12
结果 12
生 12
抓 12
利@@ 12
记录 12
打算 12
探员 12
这次 12
愿意 12
不到 12
治疗 12
同样 12
说@@ 12
怪 12
干得 12
现场 12
最终 12
受伤 12
有个 12
机 12
混蛋 12
弄 12
努力 12
怎么办 12
处 12
任务 12
哇 12
过@@ 12
牌 12
亲爱 12
天@@ 12
加里 12
不再 12
佩特 12
丹科 12
病 12
您 12
拍 12
看见 12
根据 12
奥娜 12
忍者 12
战神 12
丛林 12
普里 12
耶 12
冬季 12
大脚 12
克里斯蒂 12
女儿 11
老板 11
案 11
一份 11
变 11
家@@ 11
件 11
命 11
雷 11
一旦 11
嘛 11
时@@ 11
安东尼奥 11
一种 11
酒精 11
担心 11
4 11
分 11
配合 11
变得 11
老 11
坐 11
场 11
管 11
3 11
人们 11
完 11
以及 11
如何 11
回答 11
派 11
爸爸 11
疯狂 11
某人 11
漂亮 11
动 11
莉 11
级 11
小姐 11
偷 11
城市 11
待 11
笑 11
8 11
长官 11
正在 11
藏 11
同时 11
眼睛 11
开心 11
不同 11
周 11
7 11
永生 11
超模 11
太好了 11
凯蒂 11
量 11
霍利 11
火花 11
... 11
传真 11
干吗 11
经理 11
抗抑郁 11
豪斯 11
呼吸 11
毒品 11
沃克 10
特别 10
找@@ 10
才能 10
帮忙 10
太@@ 10
里@@ 10
可@@ 10
难道 10
或 10
之一 10
突然 10
后面 10
测试 10
查@@ 10
传@@ 10
之 10
花 10
情@@ 10
同意 10
也就是说 10
保护 10
法 10
老@@ 10
明显 10
警官 10
查 10
失望 10
救 10
害怕 10
显示 10
书 10
定 10
线 10
来自 10
伤害 10
案件 10
留下 10
同 10
拖拉机 10
所有人 10
外 10
救@@ 10
指@@ 10
进去 10
血 10
成 10
枪 10
做到 10
店 10
奇怪 10
情 10
见到 10
的确 10
通过 10
小心 10
以后 10
内森 10
马特 10
自@@ 10
游戏 10
麻烦 10
真正 10
气 10
放开 10
香农 10
今晚 10
卖 10
好象 10
症状 10
泰勒 10
可不 10
买 10
发烧 10
快乐 10
梅甘 10
坏 10
支票 10
克里斯 10
警探 10
3000 10
修行 10
大门 10
派克 10
阿朗佐 10
三个 9
监狱 9
会@@ 9
雇 9
阿比 9
开玩笑 9
字 9
明@@ 9
留 9
要@@ 9
否则 9
就要 9
地@@ 9
一家 9
明天 9
所@@ 9
早就 9
穿 9
回到 9
玩 9
克 9
进行 9
属于 9
死@@ 9
容易 9
就算 9
线索 9
边 9
事实 9
其中 9
楼 9
转@@ 9
空 9
家里 9
事@@ 9
怀疑 9
紧张 9
生意 9
可不是 9
人员 9
想@@ 9
质疑 9
这点 9
现@@ 9
忠诚 9
下次 9
911 9
口 9
遇到 9
做出 9
意识 9
收到 9
法律 9
开@@ 9
身@@ 9
度 9
一场 9
内 9
一年 9
一位 9
谢@@ 9
疯 9
晚上 9
克拉克 9
乌龟 9
联邦调查局 9
别的 9
搞定 9
负责 9
室 9
状况 9
学 9
来看 9
喂 9
任何人 9
很@@ 9
吉他 9
秘密 9
取@@ 9
确认 9
附近 9
斯 9
长 9
进入 9
第一次 9
骗 9
观众 9
屋顶 9
哪里 9
加入 9
面试 9
想法 9
强大 9
最近 9
20 9
模特 9
性感 9
经常 9
讲 9
比赛 9
性@@ 9
合作 9
欢迎 9
重 9
检测 9
正是 9
去世 9
好消息 9
巴士 9
DNA 9
抢 9
液氮 9
莱斯 9
13 9
西蒙 9
只能 8
有时 8
简单 8
阿@@ 8
州 8
黑@@ 8
就@@ 8
女 8
为何 8
考虑 8
刚 8
取 8
懂 8
做@@ 8
当时 8
色 8
服 8
喝 8
未@@ 8
衣服 8
车里 8
驾驶 8
头@@ 8
录像 8
分钟 8
走@@ 8
卡@@ 8
政府 8
合@@ 8
其 8
所说 8
化@@ 8
本@@ 8
忘 8
高@@ 8
位置 8
不管 8
拿走 8
德 8
对于 8
服务 8
打扰 8
加@@ 8
条 8
听到 8
恐惧 8
喝醉 8
高 8
物 8
回去 8
放弃 8
他@@ 8
逮捕 8
此 8
型 8
相@@ 8
好好 8
曼 8
再@@ 8
斯@@ 8
不行 8
引爆 8
全都 8
直到 8
收 8
哈 8
旅行 8
器 8
一条 8
力量 8
开枪 8
重新 8
保持 8
爱@@ 8
男人 8
当@@ 8
别@@ 8
, 8
200 8
不该 8
杀@@ 8
议员 8
女孩 8
为@@ 8
造成 8
单 8
指望 8
帕柯曼 8
超能力 8
入 8
面@@ 8
关心 8
找个 8
曾经 8
谢 8
几@@ 8
纽约 8
唐 8
副 8
1@@ 8
不得不 8
有趣 8
员 8
每@@ 8
一堆 8
一名 8
陶 8
老家伙 8
方式 8
下毒 8
指纹 8
出血 8
护士 8
通常 8
赖森 8
闭嘴 8
在乎 8
可爱 8
目击 8
血@@ 8
假装 8
块 8
罪犯 8
持续 8
下去 8
35 8
亨特 8
终于 8
弟兄们 8
怪物 8
亡灵 8
传说 8
卡瓦 8
邦 8
嘎 8
史宾林 8
史宾林特 8
拉斐尔 8
莱昂纳多 8
胜利者 8
诅咒 8
耶格尔 8
典当 8
妈 7
年@@ 7
新@@ 7
动手 7
基@@ 7
西@@ 7
指控 7
活 7
拥有 7
路易斯 7
经历 7
台 7
公平 7
感@@ 7
周@@ 7
深@@ 7
米勒 7
强 7
后备箱 7
被@@ 7
承认 7
道 7
除非 7
托@@ 7
床上 7
理 7
查尔斯 7
拉@@ 7
自从 7
坐在 7
监视 7
还给 7
引起 7
未来 7
赌@@ 7
马@@ 7
德@@ 7
通 7
明 7
款 7
带走 7
病@@ 7
亲@@ 7
子弹 7
留@@ 7
活着 7
信息 7
令 7
举报 7
车辆 7
回@@ 7
或是 7
头发 7
警方 7
路上 7
包@@ 7
不怎么 7
帮@@ 7
从没 7
提@@ 7
接@@ 7
久 7
从未 7
这才 7
停@@ 7
离 7
证人 7
及 7
引@@ 7
由 7
直接 7
痛苦 7
以@@ 7
说谎 7
莱特 7
厉害 7
不幸 7
教 7
说实话 7
火@@ 7
教室 7
似的 7
再说 7
华盛顿 7
装@@ 7
逃 7
多少 7
声音 7
间 7
交@@ 7
二 7
妻子 7
光 7
干@@ 7
外面 7
水 7
找出 7
罗恩 7
提 7
罗@@ 7
万@@ 7
方@@ 7
袭击 7
估计 7
把手 7
共@@ 7
第 7
那边 7
杀死 7
说了算 7
学校 7
面 7
母亲 7
动@@ 7
剩下 7
说真的 7
选 7
一天 7
捅 7
期 7
投票 7
睡觉 7
背后 7
占 7
男友 7
斯蒂芬 7
妮 7
投入 7
而是 7
首先 7
不好意思 7
吃@@ 7
战胜 7
太棒了 7
一遍 7
带来 7
早上 7
桃瑞丝 7
介绍 7
约翰逊 7
老人 7
萨 7
毒死 7
看过 7
权利 7
24 7
具 7
员工 7
奖金 7
随便 7
一只 7
美元 7
表 7
据 7
电@@ 7
钱包 7
吻合 7
声 7
挤压 7
酗酒 7
过敏 7
背包 7
栗子 7
入室 7
鲁比 7
发牌 7
皮尔斯 7
和@@ 6
如@@ 6
各位 6
释放 6
律 6
停 6
盯 6
黑手党 6
啥 6
预@@ 6
见面 6
空间 6
从来 6
无辜 6
随 6
检察官 6
说服 6
所谓 6
酒吧 6
从@@ 6
体 6
国家 6
作 6
这回 6
消息 6
往 6
看法 6
得@@ 6
中心 6
威尔逊 6
去年 6
班 6
任 6
再也 6
呆 6
该死 6
虽然 6
角度 6
坐@@ 6
交易 6
公寓 6
他来 6
你家 6
害 6
保@@ 6
陪 6
居然 6
联邦 6
忘记 6
时代 6
票 6
顶 6
闯进 6
下面 6
飞 6
谈过 6
几次 6
争论 6
允许 6
之@@ 6
申请 6
无 6
一部分 6
到@@ 6
靠近 6
健康 6
使用 6
车@@ 6
衣@@ 6
起诉 6
彼此 6
意 6
男性 6
快@@ 6
味道 6
断@@ 6
言 6
警@@ 6
报 6
身 6
结@@ 6
醉 6
相当 6
女性 6
我该 6
轻@@ 6
被捕 6
空@@ 6
击中 6
经@@ 6
其@@ 6
意义 6
克莱德 6
正@@ 6
疯子 6
拖车 6
爆炸 6
正如 6
去过 6
前@@ 6
样 6
咯 6
斯蒂尔 6
我家 6
张 6
更@@ 6
棒 6
平@@ 6
主@@ 6
用来 6
感到 6
安排 6
目标 6
行@@ 6
无线电 6
啦 6
日 6
压 6
此@@ 6
炸飞 6
有关 6
风@@ 6
口@@ 6
正确 6
到处 6
武@@ 6
破 6
出色 6
最@@ 6
不介意 6
坏消息 6
强@@ 6
关@@ 6
酒店 6
恐怖分子 6
轮到 6
很棒 6
十@@ 6
没关系 6
再见 6
反抗者 6
伊尔 6
点@@ 6
同@@ 6
碰 6
破坏 6
终@@ 6
观 6
答案 6
杀手 6
战斗 6
不够 6
你@@ 6
文件 6
少 6
这份 6
姑娘 6
兴趣 6
生@@ 6
差不多 6
次 6
本来 6
仅仅 6
抱 6
好运 6
赶@@ 6
梦想 6
多米尼克 6
洗@@ 6
坚强 6
因 6
台步 6
进@@ 6
结婚 6
雅基 6
看@@ 6
讨厌 6
老兄 6
享受 6
这周 6
体@@ 6
欣赏 6
观点 6
带@@ 6
参与 6
斗 6
早上好 6
警长 6
局 6
普罗文 6
11 6
简直 6
特@@ 6
档案 6
住客 6
说法 6
晚安 6
一会 6
有时候 6
没法 6
幸运 6
破@@ 6
砸 6
正常 6
病例 6
掉下来 6
日记 6
其它 6
季 6
胰腺炎 6
坚持 6
急性 6
刺伤 6
启森 6
住手 6
温蒂 6
皮肤 6
奥托 6
星星 6
匹配 6
罐子 6
赖特 6
聚会 6
哥哥 6
D 6
玛雅 6
抢劫 6
滑稽 6
连环画 6
兑换 6
现金 6
训练 6
恶魔 6
尤 6
塔尔 6
通道 6
收集 6
唐尼 6
汤米 6
领导 6
义务 6
雕塑 6
奥尼尔 6
喷气 6
技术 6
团结一心 6
开启 6
脾气 6
不得 6
戒指 6
撞见 6
牌桌 6
能够 5
麦克迪尔 5
15 5
麻@@ 5
理@@ 5
工@@ 5
整天 5
普@@ 5
作@@ 5
证 5
辩@@ 5
科@@ 5
保证 5
消@@ 5
保 5
日@@ 5
后@@ 5
伙 5
即使 5
而@@ 5
约 5
挂 5
上班 5
段 5
跟@@ 5
夏洛特 5
见@@ 5
了@@ 5
杀人 5
这样的话 5
知 5
既然 5
抓@@ 5
箱子 5
热 5
建议 5
账 5
态度 5
越@@ 5
往@@ 5
花@@ 5
好人 5
总@@ 5
埃@@ 5
小子 5
一句 5
躺 5
儿 5
一般 5
单@@ 5
谋士 5
雷@@ 5
事件 5
脑子 5
答应 5
还要 5
二@@ 5
代 5
金@@ 5
法@@ 5
毒 5
私人 5
闯入 5
4@@ 5
尊重 5
信@@ 5
威胁 5
近 5
热@@ 5
而言 5
艾@@ 5
哈@@ 5
完整 5
验证 5
气@@ 5
背@@ 5
尽@@ 5
尽力 5
存在 5
音 5
行驶 5
止 5
有所 5
绝对 5
手下 5
规定 5
联系 5
反对 5
描述 5
仍 5
照 5
入@@ 5
检查 5
足够 5
变@@ 5
嫌疑人 5
尽 5
做好 5
年轻 5
仅 5
则 5
洞 5
观察 5
避免 5
不敢 5
制 5
付 5
在我看来 5
内@@ 5
对@@ 5
尽管 5
想着 5
有事 5
这人 5
大楼 5
多久 5
主 5
满 5
跟着 5
表明 5
包括 5
镜头 5
农场 5
里斯 5
凯尔 5
能@@ 5
千@@ 5
指令 5
方法 5
讨论 5
太久 5
还@@ 5
代@@ 5
半@@ 5
在@@ 5
大众 5
谈话 5
国@@ 5
拯救 5
可怜 5
传达 5
什么样 5
转移 5
紧@@ 5
艰难 5
流@@ 5
证实 5
队 5
吸引 5
愤怒 5
批准 5
听听 5
变化 5
就行了 5
试图 5
四@@ 5
使 5
失@@ 5
那好 5
警局 5
试@@ 5
追踪 5
动作 5
这边 5
冒 5
命@@ 5
步 5
哪@@ 5
芭比 5
师 5
除掉 5
红线 5
黑线 5
加布里埃尔 5
后来 5
组织 5
抢先 5
狗@@ 5
格 5
说得对 5
击 5
丢 5
差点 5
传 5
家庭 5
太多 5
接下来 5
能量 5
死去 5
活@@ 5
完@@ 5
万美金 5
拍摄 5
澡 5
两周 5
三人 5
亲密 5
主题 5
学@@ 5
这有 5
他俩 5
拍@@ 5
女友 5
效果 5
男朋友 5
非常感谢 5
舔 5
干净 5
搭档 5
乱 5
女朋友 5
尤其 5
兴奋 5
完美 5
料 5
买@@ 5
期望 5
嘴 5
胡@@ 5
层 5
发挥 5
各@@ 5
面临 5
默契 5
十分 5
比如 5
刚刚 5
应付 5
第@@ 5
格@@ 5
仔细 5
布伦达 5
弄@@ 5
另外 5
戴 5
中毒 5
签 5
诊断 5
公共 5
活动 5
金属 5
吃饭 5
成功 5
孤寂 5
寻常 5
5@@ 5
实现 5
解除 5
美@@ 5
日子 5
便宜 5
味 5
体温 5
打磨机 5
感染 5
一步 5
酶 5
比起 5
尔@@ 5
世上 5
痕 5
窘迫 5
综合症 5
多罗 5
西娅 5
大概 5
帽子 5
除了 5
工具 5
臭 5
儿童 5
保安 5
凶器 5
运动 5
报@@ 5
地上 5
迪 5
菲利克斯 5
恶心 5
醒来 5
AAA 5
姑父 5
吉恩 5
克罗克 5
类比 5
正常人 5
想念 5
跳舞 5
召唤 5
史 5
当心 5
神龟 5
碎片 5
老妈 5
友善 5
烟雾弹 5
躲 5
大学 5
鲍比 5
运气 5
小巷 5
刀 5
维加斯 5
当铺 5
多年 4
这件 4
爸 4
自 4
幻想 4
种 4
离@@ 4
特区 4
罪 4
接手 4
集团 4
犯罪 4
经济学家 4
易@@ 4
他杀 4
只不过 4
责任 4
论@@ 4
诺@@ 4
激@@ 4
直 4
办事 4
告知 4
卖命 4
团@@ 4
退 4
吻 4
银行 4
客户 4
根 4
遇 4
遵命 4
流 4
风 4
双@@ 4
陪审团 4
刺激 4
词 4
信任 4
罪名 4
下班 4
餐馆 4
式 4
停车 4
清醒 4
行李箱 4
坦白 4
草 4
那晚 4
赌局 4
非 4
反@@ 4
交给 4
电梯 4
塞 4
包 4
达 4
公@@ 4
垃圾 4
有意 4
浓@@ 4
优@@ 4
感 4
擅长 4
社区 4
金 4
但@@ 4
提到 4
戈 4
核对 4
极@@ 4
烧 4
安 4
敢 4
通知 4
乔伊@@ 4
管@@ 4
分裂 4
黄@@ 4
化 4
合 4
受 4
冷@@ 4
奇 4
账本 4
无权 4
称 4
并非 4
业 4
听@@ 4
服@@ 4
留给 4
助手 4
那天 4
舒服 4
谈@@ 4
士 4
核@@ 4
匿名举报 4
该@@ 4
输 4
反应 4
呼 4
担@@ 4
行为 4
道歉 4
逃避 4
片 4
作为 4
大街 4
维@@ 4
友好 4
混 4
这话 4
不可 4
方 4
禁止 4
自由 4
很快 4
忽@@ 4
被告 4
符合 4
扣留 4
未 4
制造 4
减@@ 4
多么 4
困难 4
推@@ 4
生命 4
看吧 4
着@@ 4
眼@@ 4
需 4
谋杀案 4
顺便 4
自欺欺人 4
介意 4
慢慢 4
巧合 4
专家 4
博士 4
谎言 4
实 4
更好 4
米 4
班@@ 4
逃@@ 4
试试 4
安吉拉 4
龟 4
海@@ 4
街区 4
屋@@ 4
远离 4
窗户 4
飞@@ 4
说不定 4
尽量 4
别说 4
成@@ 4
关 4
油 4
痕迹 4
一枪 4
3@@ 4
0@@ 4
究竟 4
夫人 4
抱怨 4
不信 4
满@@ 4
怕 4
留在 4
司机 4
误@@ 4
隐瞒 4
球 4
侧 4
隐@@ 4
按 4
规则 4
不准 4
调 4
密 4
注意力 4
真不错 4
人会 4
份 4
夫 4
药品 4
阻击 4
拿@@ 4
上帝 4
指示 4
精彩 4
色@@ 4
争@@ 4
总得 4
说完 4
因此 4
这会 4
远@@ 4
声称 4
人人 4
商@@ 4
品 4
造 4
于是 4
话@@ 4
放在 4
这下 4
拆弹 4
劫@@ 4
起@@ 4
觉 4
要说 4
傻 4
这张 4
定@@ 4
悬@@ 4
放下 4
部分 4
险 4
自我 4
之类 4
T@@ 4
马 4
凭 4
损伤 4
我错 4
可真 4
守 4
带回 4
过得 4
拜 4
特工 4
假 4
金牌 4
滋味 4
布@@ 4
皮特 4
上次 4
队长 4
英雄 4
玩意 4
袭击者 4
门@@ 4
系统 4
灾难 4
刚才 4
对方 4
到达 4
投@@ 4
书@@ 4
克斯 4
周三 4
形 4
能力 4
差 4
鱼 4
猎物 4
底 4
念@@ 4
全部 4
测 4
百@@ 4
遗@@ 4
理由 4
与@@ 4
无关 4
获取 4
签署 4
乱@@ 4
耗@@ 4
身份 4
糟 4
戒 4
只@@ 4
熟悉 4
《 4
》 4
对付 4
位@@ 4
道@@ 4
上周 4
淘汰 4
一人 4
应@@ 4
恋@@ 4
电 4
有意思 4
男 4
尾@@ 4
没人@@ 4
表演 4
都行 4
摄影师 4
穿着 4
很难 4
其他人 4
房 4
水@@ 4
乳@@ 4
参加 4
充@@ 4
点儿 4
只会 4
女@@ 4
摸 4
意@@ 4
踢 4
皮@@ 4
票选 4
影响 4
原@@ 4
充满 4
出场 4
精神 4
相处 4
产生 4
待定 4
她们 4
精@@ 4
o@@ 4
温@@ 4
屋主 4
房@@ 4
出价 4
规矩 4
幻觉 4
丹尼尔斯 4
部门 4
供 4
请@@ 4
问问 4
朗普 4
斯克 4
超过 4
莫@@ 4
毒性 4
见鬼 4
死因 4
认@@ 4
汤森德 4
访客 4
签字 4
认出 4
妄想症 4
吃药 4
医疗 4
补助 4
砷 4
奖 4
入住率 4
难@@ 4
搬家 4
支付 4
紧 4
可怕 4
新闻 4
一对 4
记@@ 4
弗 4
不仅 4
何@@ 4
处@@ 4
价值 4
案@@ 4
压力 4
雇佣 4
华@@ 4
调@@ 4
发热 4
是从 4
菌 4
真菌 4
昏迷 4
借 4
抑郁 4
高烧 4
急@@ 4
透析 4
血液 4
症 4
卡迪 4
受@@ 4
建筑 4
事故 4
由于 4
尖叫 4
A 4
袋 4
做个 4
五@@ 4
胎 4
堕胎 4
避孕药 4
剂 4
楼上 4
综合征 4
不太 4
并且 4
走开 4
雪@@ 4
左右 4
链子 4
血滴 4
查出 4
中间 4
一致 4
酸 4
桌@@ 4
清理 4
数字 4
形状 4
老大 4
样本 4
兼职 4
狗狗 4
烤 4
犯罪现场 4
闻到 4
街上 4
代表 4
游泳 4
2B 4
云朵 4
注 4
面包 4
复@@ 4
忧郁 4
下水道 4
重生 4
莱德 4
并肩战斗 4
基干 4
星座 4
折磨 4
领袖 4
怪人 4
生日 4
2802 4
枪支 4
特派 4
乖乖 4
警员 4
以来 4
接电话 4
闹钟 4
发胶 4
但愿 4
吉拉 4
警告 4
眼线 4
招呼 4
多谢 4
帮手 4
贱人 4
犯罪分子 4
决不会 4
跪下 4
做梦 4
勇士 4
小菜一碟 4
肩膀 4
卡拉 4
伊 4
战士 4
白痴 4
长得 4
丢人 4
遵守 4
业余 4
计谋 4
石雕 4
面具 4
甜点 4
拉尔夫 4
主人 4
魔咒 4
毁灭 4
刚刚开始 4
不太好 4
万圣节 4
大哥 4
听命于 4
优秀 4
死不了 4
军队 4
承诺 4
到时候 4
万 4
白班 4
凌晨 4
西雅图 4
元 4
8@@ 4
出千 4
狗屎运 4
作弊 4
扬声器 4
打手 4
天前 4
克@@ 3
接触 3
布 3
阴@@ 3
一刻 3
目的 3
发誓 3
田@@ 3
纳@@ 3
婚 3
玩笑 3
读 3
省@@ 3
通@@ 3
强项 3
眼 3
拒绝 3
不让 3
不敢相信 3
等到 3
阻止 3
追杀 3
消失 3
一面 3
插@@ 3
扣 3
折 3
意见 3
道德 3
顺利 3
随@@ 3
辩护 3
护@@ 3
秒 3
一无所知 3
那有 3
醉酒 3
酒驾 3
超@@ 3
拘留 3
勒@@ 3
受害者 3
没见 3
不接 3
似乎 3
携带 3
趁 3
对头 3
署 3
检控官 3
所愿 3
职责 3
巴@@ 3
万斯 3
牵@@ 3
芝加哥 3
老朋友 3
尽头 3
货物 3
拖 3
卷 3
手段 3
功夫 3
礼 3
讨@@ 3
计 3
姆 3
可疑 3
林 3
牢 3
费@@ 3
不少 3
我刚 3
出发 3
提出 3
诉 3
质 3
退出 3
耍 3
免@@ 3
摆 3
知晓 3
瞧 3
秀 3
从此 3
官@@ 3
深 3
方面 3
不复存在 3
不在乎 3
绑架 3
落 3
听从 3
毛@@ 3
灭 3
竞争@@ 3
设计 3
合理 3
陷阱 3
辛苦 3
右@@ 3
萨@@ 3
兰 3
书桌 3
桌 3
咨询 3
规@@ 3
赖 3
备@@ 3
40 3
另@@ 3
获@@ 3
残@@ 3
务@@ 3
伦 3
鉴于 3
冲@@ 3
直@@ 3
否认 3
来电 3
蛇形 3
废除 3
法官 3
视 3
这能 3
出卖 3
手上 3
解 3
录@@ 3
亚 3
向@@ 3
南 3
09 3
黑色 3
制@@ 3
专业 3
一辆 3
不管@@ 3
不规则 3
拦下 3
确切 3
喝酒 3
纳 3
控@@ 3
无法忍受 3
弄清楚 3
无畏 3
白人 3
前行 3
速度 3
灯 3
嘴里 3
大人 3
依 3
常@@ 3
给@@ 3
型@@ 3
细@@ 3
速 3
始@@ 3
轮 3
暗示 3
酒@@ 3
视@@ 3
角 3
睁 3
应 3
更是 3
设@@ 3
以便 3
决 3
弗吉尼亚州 3
节 3
确@@ 3
告 3
炒 3
率 3
欲望 3
腾出 3
垃圾箱 3
闻 3
智 3
弟弟 3
虚@@ 3
实@@ 3
属 3
不然 3
出发点 3
你们好 3
福@@ 3
这事 3
财务部 3
农@@ 3
炸药 3
真有 3
协@@ 3
范围 3
外@@ 3
连 3
表@@ 3
轻点 3
玩意儿 3
学生 3
玩具 3
宠物 3
闹@@ 3
翻@@ 3
地盘 3
科学 3
指挥 3
光@@ 3
持有 3
傀儡 3
清 3
谈判 3
世@@ 3
般的 3
杀戮 3
玛丽 3
经济 3
隔 3
表情 3
音乐课 3
卡尔 3
机场 3
飞机 3
察@@ 3
哪个 3
农民 3
嘴@@ 3
骗@@ 3
红@@ 3
轻易 3
成熟 3
就位 3
那群 3
通话 3
提醒 3
研究 3
少@@ 3
要开 3
防@@ 3
神@@ 3
帕@@ 3
违@@ 3
恶@@ 3
越来越 3
冷 3
设置 3
脑袋 3
低@@ 3
听见 3
且 3
实话 3
尽快 3
先@@ 3
小组 3
尖 3
打击 3
不必 3
之地 3
悲@@ 3
展 3
经 3
倒@@ 3
他人 3
胆小鬼 3
老公 3
恩@@ 3
谱 3
容器 3
送到 3
含@@ 3
7@@ 3
每 3
寸 3
朝 3
罢了 3
处在 3
势 3
持 3
做些 3
欧文 3
戴@@ 3
支援 3
副@@ 3
随时 3
举 3
偶尔 3
一点点 3
做法 3
奥斯卡 3
天才 3
干过 3
径 3
之外 3
宾@@ 3
发给 3
各 3
驾 3
手势 3
认错 3
组@@ 3
同谋 3
状态 3
张@@ 3
依然 3
爆@@ 3
一线 3
转 3
没到 3
我爱你 3
暂时 3
M 3
世人 3
五分钟 3
独@@ 3
夜 3
带回家 3
孤@@ 3
没人会 3
误 3
校车 3
市 3
短信 3
露@@ 3
车上 3
免死 3
弃 3
不顾 3
鲁@@ 3
走运 3
脸@@ 3
套 3
哪来 3
快要 3
夺@@ 3
登@@ 3
不多 3
器@@ 3
货 3
癌症 3
多亏 3
安危 3
早@@ 3
祝你好运 3
存 3
头上 3
期待 3
仍然 3
跳@@ 3
非得 3
粗鲁 3
森@@ 3
门口 3
亚@@ 3
经验 3
啦啦队 3
漫画书 3
七@@ 3
全局 3
烦 3
史@@ 3
神话 3
夺走 3
到哪去 3
依@@ 3
共同点 3
整 3
挑战 3
司@@ 3
亲 3
接着 3
太快 3
总 3
双手 3
资料 3
瑞@@ 3
丽 3
比@@ 3
宝@@ 3
9@@ 3
失踪 3
惊讶 3
断 3
神奇 3
分辨 3
带上 3
孤独 3
小小的 3
盘 3
奋@@ 3
战 3
全是 3
刚@@ 3
换 3
保姆 3
续 3
倒下 3
现 3
创@@ 3
命运 3
培训 3
僵硬 3
倒数 3
三名 3
生气 3
审@@ 3
判 3
打包 3
支持 3
全新 3
裤 3
受够了 3
再次 3
合适 3
长@@ 3
两者 3
取得胜利 3
两次 3
信心 3
广告 3
三 3
叫@@ 3
飘@@ 3
上来 3
赐 3
思考 3
酒 3
程度 3
胸@@ 3
100 3
我想 3
男孩 3
吸@@ 3
想想 3
前面 3
松 3
国 3
聊 3
目@@ 3
脚@@ 3
印 3
摆@@ 3
压@@ 3
脑子里 3
在家 3
不上 3
疑@@ 3
抬起 3
道具 3
酷 3
一番 3
惊 3
怪@@ 3
素质 3
辣 3
同性恋 3
演@@ 3
各种 3
童@@ 3
乎 3
一张 3
都@@ 3
争执 3
整整 3
好了吗 3
能行 3
无论 3
野@@ 3
想到 3
层@@ 3
看不见 3
看出 3
想象 3
麦@@ 3
蒂@@ 3
稀奇古怪 3
记住 3
把@@ 3
力@@ 3
相 3
击@@ 3
昨天 3
秀@@ 3
评委 3
价 3
风格 3
幽默感 3
像@@ 3
床 3
一半 3
美 3
脱@@ 3
笑容 3
弱点 3
难以置信 3
乐趣 3
孰 3
八@@ 3
梯台 3
舞@@ 3
东@@ 3
关闭 3
r@@ 3
a@@ 3
t@@ 3
雨@@ 3
失败 3
问@@ 3
游@@ 3
放盘 3
医@@ 3
救命 3
周末 3
查查 3
失踪人口 3
知@@ 3
房地产 3
求助 3
保持沉默 3
伯纳德 3
恐怕 3
AFIS 3
不肯 3
报案 3
尸@@ 3
点钟 3
传真机 3
弗林 3
猜猜 3
打搅 3
整@@ 3
严重 3
老年 3
审讯 3
检 3
手里 3
同一 3
恭喜 3
执行 3
唐纳德 3
劳@@ 3
还会 3
签名 3
没人 3
得来 3
勾@@ 3
宁可 3
顾客 3
惨@@ 3
伯尼 3
医院 3
杀掉 3
聚在一起 3
建立 3
加班 3
时期 3
挖出 3
绝@@ 3
破案 3
死胡同 3
数@@ 3
举报信 3
戈登 3
怪异 3
接到 3
碰到 3
度假 3
毁掉 3
写出 3
负@@ 3
才行 3
日志 3
探望 3
动机 3
感情 3
神秘 3
寂寞 3
就别 3
毒@@ 3
图 3
基本上 3
会为 3
得以 3
一级 3
在意 3
遗忘 3
某@@ 3
度过 3
累@@ 3
迟到 3
新泽西 3
手术 3
骨折 3
星球 3
独自 3
坍塌 3
地板 3
短@@ 3
脑@@ 3
M@@ 3
形成 3
狼疮 3
几周 3
架 3
城堡 3
布拉德 3
伯里 3
0 3
太太 3
礼@@ 3
赌 3
将会 3
美金 3
偷@@ 3
眨 3
别动 3
抑制剂 3
简历 3
微 3
长时间 3
拉斯 3
语气 3
静脉注射 3
几天 3
夫@@ 3
出击 3
治愈 3
O 3
社会 3
三年 3
若 3
巴 3
内出血 3
明摆着 3
子宫 3
留意 3
康@@ 3
地球 3
午夜 3
欺负 3
无法解释 3
想起 3
第二个 3
服用 3
息 3
偷走 3
大师 3
妈咪 3
2@@ 3
出租车 3
景 3
今年 3
舞 3
奥@@ 3
开着 3
剪断 3
尸 3
冻住 3
枪@@ 3
棒球帽 3
绳 3
妙 3
激烈 3
每晚 3
扫把 3
锡德 3
好戏 3
9 3
钩子 3
经过 3
尺 3
证物 3
手指画 3
粘土 3
星 3
幼稚园 3
玩具店 3
被害人 3
幼儿园 3
斯坦 3
尼日利亚 3
疫苗 3
血样 3
C@@ 3
D@@ 3
弗拉 3
格林 3
捐赠人 3
怎么着 3
棍 3
善心 3
穿@@ 3
很大 3
维护 3
腐@@ 3
呈 3
阳性 3
街 3
实验室 3
妹妹 3
充当 3
Foxy 3
类似 3
文本 3
废 3
淤青 3
⋯ 3
嗑 3
梦幻岛 3
长大 3
警 3
人类 3
角落 3
一课 3
滚开 3
紧急 3
外星人 3
狱 3
没想到 3
到来 3
坏人 3
持枪 3
犯 3
逃跑 3
困境 3
浮 3
汇兑 3
施@@ 3
鲁特 3
2000 3
这款 3
牢房 3
E 3
李 3
挖 3
正义 3
跟踪 3
升职 3
卫 3
老鼠 3
庆祝 3
唱@@ 3
22 3
脉搏 3
呼叫 3
收拾 3
贵 3
老天 3
兑换处 3
受到 3
城 3
手头 3
尝 3
配方 3
滑 3
绿色 3
蓝色 3
恢复正常 3
闹情绪 3
沉重 3
合伙 3
四个 3
耳熟 3
年前 3
电脑 3
嫌犯 3
可比 3
了不起 3
佣金 3
翻倍 3
损失 3
荣誉 3
争 3
放到 3
传奇 3
迫切 3
这条 3
习惯 3
抓走 3
帮帮忙 3
赔 3
扇门 3
洗牌 3
铺 3
法拉 3
押 3
概率 3
偷东西 3
值钱 3
多钱 3
盗贼 3
累赘 3
齐克 3
雪茄 3
辛 2
将近 2
初 2
杂@@ 2
了结 2
说到做到 2
塔@@ 2
塔米 2
办 2
代理律师 2
犯下 2
罪@@ 2
涉 2
智@@ 2
库 2
提供 2
业@@ 2
孟斐斯 2
条子 2
扳倒 2
推到 2
条@@ 2
扯平 2
贝@@ 2
保险公司 2
具备 2
大多数 2
下属 2
尔曼 2
逃亡 2
走进 2
咱 2
好几个 2
总有 2
备 2
前提 2
全身@@ 2
撒@@ 2
腿@@ 2
费用 2
折@@ 2
治疗师 2
换个 2
委员会 2
我妈 2
午饭 2
然 2
开车 2
扣子 2
西装 2
灰@@ 2
一颗 2
颗 2
排 2
言@@ 2
请求 2
30 2
罗马 2
高级 2
脱掉 2
闪@@ 2
光灯 2
0.08 2
裸@@ 2
不利 2
未必 2
塞@@ 2
一有 2
边@@ 2
掌握 2
已@@ 2
沾@@ 2
拿出 2
出局 2
无所谓 2
密@@ 2
切 2
意大@@ 2
晓得 2
53 2
旁@@ 2
被单 2
扔进 2
槽 2
高明 2
过失杀人 2
住@@ 2
气氛 2
慢 2
性别歧视 2
只当 2
理财 2
厌 2
每年 2
笔 2
芬@@ 2
马丁 2
分类账 2
收支 2
来点 2
乔@@ 2
真话 2
大厦 2
焚@@ 2
炉 2
立@@ 2
职业 2
勒死 2
半 2
身体 2
用不着 2
玩@@ 2
娘 2
人物 2
钱@@ 2
我本 2
诺 2
布尔 2
中枪 2
FBI 2
脱离 2
提前 2
逗 2
探@@ 2
访 2
栏 2
签@@ 2
提议 2
干活 2
呐 2
甘心 2
切尔 2
维诺 2
小伙子 2
说得@@ 2
路线 2
郁@@ 2
几小时 2
确信 2
有罪 2
就此 2
论 2
摆脱 2
一路 2
左@@ 2
讲@@ 2
财@@ 2
产 2
号@@ 2
失 2
翼@@ 2
准@@ 2
确 2
破门而入 2
祖@@ 2
积@@ 2
继承 2
总会 2
低估 2
存@@ 2
并不需要 2
构陷 2
伊@@ 2
苟@@ 2
延@@ 2
喘 2
服从 2
今 2
局面 2
纪@@ 2
牢@@ 2
记 2
仰@@ 2
助@@ 2
横@@ 2
撞 2
路@@ 2
摩@@ 2
项 2
呼@@ 2
怨 2
同事 2
抽@@ 2
挪用 2
大部分 2
药@@ 2
负 2
内部 2
或@@ 2
龃龉 2
白 2
不安 2
电话@@ 2
林荫大道 2
宝马 2
系 2
外套 2
害死 2
截@@ 2
安静 2
梯 2
床单 2
卧室 2
拦@@ 2
摆明 2
算@@ 2
俱乐部 2
近@@ 2
亲近 2
惹 2
毛 2
消息@@ 2
来源 2
认同 2
动议 2
无效 2
即@@ 2
便 2
足以 2
听证 2
读@@ 2
有种 2
并非@@ 2
勇@@ 2
敢@@ 2
追寻 2
本能 2
辆车 2
有效 2
具体 2
车道 2
薄@@ 2
荷@@ 2
掩盖 2
当晚 2
举报者 2
可信 2
获 2
驾驶者 2
详@@ 2
不断 2
幻 2
超速 2
要不是 2
之下 2
偿 2
成真 2
眼睁@@ 2
文@@ 2
章 2
第一 2
愉@@ 2
悦 2
未经 2
公正 2
对待 2
某些 2
光是 2
本身 2
精准 2
最高法院 2
裁@@ 2
绝 2
区 2
却@@ 2
车祸 2
目前 2
并@@ 2
鼓励 2
增@@ 2
费 2
填补 2
尝试 2
两枪 2
华 2
略@@ 2
智慧 2
许可 2
休息 2
容 2
纯@@ 2
构 2
正好 2
面前 2
测@@ 2
肚 2
曼@@ 2
矛盾 2
谎话 2
同学 2
雷诺兹 2
屏幕 2
前方 2
和平 2
抗议 2
场@@ 2
扯不上 2
接收 2
恶作剧 2
送@@ 2
溅 2
玻璃 2
不许 2
弗@@ 2
焦虑 2
士@@ 2
困@@ 2
不去 2
标@@ 2
准 2
事先 2
胆子 2
好玩 2
三年级 2
房里 2
洛克 2
教导 2
上司 2
前来 2
依赖 2
索 2
酸@@ 2
附带 2
狙击手 2
可能性 2
换@@ 2
等会儿 2
搞@@ 2
那人 2
单独 2
持弹 2
结 2
以防 2
神 2
旁边 2
北@@ 2
抗 2
税@@ 2
毫不 2
知情 2
扩@@ 2
冲着 2
气愤 2
暴力 2
墙 2
脸 2
搜查证 2
解@@ 2
情绪 2
不屑一顾 2
有权 2
座 2
乐 2
倾@@ 2
刑 2
税 2
挣@@ 2
扎 2
的是 2
话题 2
淡 2
绿灯 2
解释一下 2
尽全力 2
阻击手 2
射击 2
大厅 2
执@@ 2
灯@@ 2
镇@@ 2
扰 2
影@@ 2
准备就绪 2
融洽 2
散 2
感激 2
诚恳 2
拖延时间 2
音乐会 2
吓坏 2
首歌 2
唱 2
认清 2
状 2
处境 2
秒@@ 2
落@@ 2
座位 2
低点 2
一队 2
等待 2
攻击 2
火 2
原地不动 2
雷管 2
开关 2
开往 2
共振 2
腔 2
缩@@ 2
嘲笑 2
这算 2
默 2
正轨 2
锅 2
干掉 2
来讲 2
采@@ 2
致命 2
致 2
犯@@ 2
愿 2
剧 2
邻@@ 2
突@@ 2
立即 2
作出 2
码事 2
挖掘 2
计@@ 2
小孩 2
哭 2
小伙伴 2
保密 2
尿 2
债 2
老实 2
鬼@@ 2
凶 2
求@@ 2
大量 2
稍@@ 2
英@@ 2
效 2
扫@@ 2
疏散 2
拆掉 2
话会 2
玛丽@@ 2
做事 2
你别 2
轻举妄动 2
几分钟 2
熟 2
点子 2
根@@ 2
浪费时间 2
天天 2
愁 2
忧@@ 2
做不了 2
写歌 2
脸上 2
这辆 2
椅子 2
提过 2
说说话 2
去@@ 2
脉 2
暂停 2
爱尔@@ 2
军 2
部@@ 2
举办 2
卡 2
租 2
白色 2
扮 2
货车 2
档 2
掩人耳目 2
人群 2
当做 2
组 2
音乐 2
填@@ 2
荣@@ 2
尾 2
程@@ 2
声@@ 2
百分之百 2
拆除 2
功@@ 2
劳 2
按钮 2
运@@ 2
好事 2
确保 2
实在 2
一枚 2
炸死 2
原谅 2
博@@ 2
拥抱 2
一生 2
骄傲 2
一会儿 2
真是太 2
及@@ 2
那就好 2
秘书 2
醒 2
老子 2
烂摊子 2
带到 2
喝@@ 2
一杯 2
影 2
内特 2
加州 2
河@@ 2
抛@@ 2
正要 2
反抗军 2
足@@ 2
实际上 2
类 2
任由 2
剧@@ 2
流落 2
街头 2
算了 2
逼 2
当初 2
监@@ 2
绑 2
装置 2
趴下 2
混@@ 2
程 2
思想 2
办不到 2
码 2
权 2
这说 2
不通 2
自杀 2
假@@ 2
慢慢来 2
关键 2
那条 2
援 2
完毕 2
吹@@ 2
不管怎样 2
入侵 2
露 2
丧命 2
甩@@ 2
走着瞧 2
一走 2
心知肚明 2
我俩 2
着手 2
即刻 2
养 2
坦白说 2
惹@@ 2
招 2
一员 2
暗中 2
牺牲 2
犯人 2
不知道 2
扭曲 2
态 2
不论 2
受不了 2
不速之客 2
掩护 2
历@@ 2
莱@@ 2
零@@ 2
卖@@ 2
极 2
大卖 2
从不 2
多种 2
好几年 2
用过 2
锁定 2
得手 2
助 2
生来 2
本性 2
逃生 2
辈子 2
毫无意义 2
全世界 2
脏 2
先科 2
纸业 2
总部 2
土 2
一家人 2
亲儿子 2
久@@ 2
权@@ 2
乐意 2
响@@ 2
冰 2
答复 2
两种 2
投降 2
捕 2
父母 2
复杂 2
例外 2
隔@@ 2
我见 2
雇@@ 2
类@@ 2
脏活 2
19@@ 2
市民 2
灵@@ 2
一项 2
闲@@ 2
集 2
遗弃 2
忘@@ 2
很少 2
变老 2
承受 2
打败 2
覆辙 2
犯错 2
顽@@ 2
能动 2
如 2
软弱 2
痛 2
叛@@ 2
不清 2
治 2
范 2
无论@@ 2
骨@@ 2
至于 2
丝 2
事儿 2
配 2
总算 2
借@@ 2
注定 2
蹈 2
看待 2
当作 2
榜@@ 2
效@@ 2
仿 2
引以为@@ 2
温暖 2
之中 2
猫@@ 2
相关 2
四位 2
评审 2
14 2
抱@@ 2
选手 2
纸 2
GQ 2
杂志 2
图片 2
专@@ 2
职业生涯 2
觉着 2
板 2
他长 2
很帅 2
最弱 2
时尚 2
列 2
四 2
楼@@ 2
坏话 2
开放 2
正直 2
你去 2
对此 2
充满热情 2
室友 2
打造 2
上台 2
貌 2
走台 2
导 2
双 2
鞋 2
越 2
搞混 2
有名 2
征 2
一组 2
感冒 2
有病 2
维奥 2
飘 2
孔 2
打个招呼 2
儿@@ 2
林@@ 2
化学反应 2
青@@ 2
触@@ 2
南@@ 2
走到 2
逼真 2
促进 2
销@@ 2
高端 2
眼神 2
指头 2
香槟酒 2
淋@@ 2
湿 2
不来电 2
眯@@ 2
升@@ 2
摆姿势 2
劲 2
姿势 2
掌@@ 2
握@@ 2
电视 2
滚@@ 2
互@@ 2
雅 2
毫无@@ 2
十张 2
胸罩 2
有过 2
腿 2
富 2
客@@ 2
从中作梗 2
舌头 2
未婚夫 2
欲 2
糟@@ 2
透了 2
看得@@ 2
哟 2
棒棒糖 2
贴@@ 2
咬 2
考验 2
否 2
料到 2
过程 2
摄影室 2
垫底 2
两对 2
霍@@ 2
大杯 2
震惊 2
策略 2
香@@ 2
这么回事 2
来到 2
教练 2
刻 2
靠@@ 2
男生 2
锻炼 2
难受 2
清清@@ 2
惴@@ 2
难过 2
尼是 2
暂 2
情形 2
平淡 2
走秀 2
骑士 2
怪癖 2
参考 2
娜 2
戈@@ 2
灵感 2
会有 2
思@@ 2
组合 2
造@@ 2
成绩 2
化学作用 2
每天 2
验 2
渴望 2
这场 2
震撼 2
奇@@ 2
打分 2
先要 2
模@@ 2
步@@ 2
哪位 2
策划 2
呈@@ 2
台@@ 2
你会@@ 2
擦 2
摄@@ 2
咸 2
求同存异 2
纵@@ 2
主导 2
最先 2
适应 2
扭转 2
烂 2
差事 2
两人 2
排@@ 2
境 2
数 2
具有 2
潜@@ 2
张力 2
染@@ 2
原来 2
喜 2
异性恋 2
私@@ 2
拖@@ 2
决@@ 2
00 2
网上 2
表面 2
内心 2
阻@@ 2
展@@ 2
不小 2
弗里茨 2
曲@@ 2
搬走 2
夏@@ 2
再来点 2
咖啡 2
轮椅 2
好莱坞 2
客 2
那位 2
份@@ 2
评估 2
节@@ 2
桑切斯 2
太平间 2
封@@ 2
号码 2
共 2
自相矛盾 2
堂 2
证@@ 2
无名氏 2
印象 2
非@@ 2
眼熟 2
搜@@ 2
王 2
验@@ 2
官 2
维修 2
停职 2
星期五 2
必要 2
解剖 2
清@@ 2
擦@@ 2
炎 2
胃@@ 2
烈 2
呕吐 2
就是说 2
疗养 2
要查 2
写@@ 2
晚@@ 2
火化 2
去查 2
照顾 2
今@@ 2
上午 2
连@@ 2
杀人犯 2
尔斯 2
早些时候 2
簿 2
让@@ 2
毒药 2
独家报道 2
负责@@ 2
贾德 2
退@@ 2
妄想 2
精神@@ 2
氟 2
哌 2
丁苯 2
安定剂 2
按照 2
声誉 2
患有 2
坏事 2
过案 2
付@@ 2
不算 2
生病 2
所知 2
财政状况 2
领取 2
多次 2
计算 2
遗失 2
骨灰坛 2
罗伯茨 2
队@@ 2
控告 2
过夜 2
千美元 2
成交 2
那栋 2
丢进 2
没用 2
编造 2
不止 2
赫@@ 2
望 2
窗外 2
护 2
联络 2
一周 2
常 2
管理 2
搞错 2
记者 2
妻 2
当成 2
抬高 2
价格 2
栋 2
幸@@ 2
猫 2
履约 2
月底 2
乎@@ 2
捏 2
做成 2
日期 2
就让 2
记下来 2
嘘 2
可去 2
一方面 2
梦 2
加利 2
尼亚 2
识 2
花光 2
无视 2
第四@@ 2
等@@ 2
名单 2
全额 2
3% 2
间@@ 2
000 2
毒害 2
子@@ 2
河 2
桩 2
安乐死 2
受苦 2
痴@@ 2
停下来 2
考虑一下 2
死期 2
那会 2
法定 2
免费 2
降低 2
友@@ 2
下场 2
独家 2
埃文斯 2
编@@ 2
极端 2
鼻@@ 2
电影院 2
版本 2
球@@ 2
晕 2
震 2
多处 2
烧伤 2
建筑@@ 2
遇@@ 2
退烧药 2
接下 2
个月 2
之内 2
更强 2
高热 2
抗生素 2
物@@ 2
瓦@@ 2
RI 2
赢得 2
寄生虫 2
母 2
病史 2
治@@ 2
大脑 2
废墟 2
钥匙 2
原则 2
匹@@ 2
归 2
ub@@ 2
e 2
网@@ 2
一段时间 2
震动 2
械 2
凄@@ 2
起床 2
沮丧 2
陈词滥调 2
作用 2
糟糕 2
精神科 2
服药 2
协议 2
清洁工 2
过滤 2
抑@@ 2
身边 2
蛋 2
勇敢 2
宠@@ 2
窃 2
绑架者 2
一下眼 2
喉@@ 2
意外 2
永@@ 2
氧@@ 2
家属 2
心动过速 2
眨眼 2
膜炎 2
弹@@ 2
传来 2
绑@@ 2
邪恶 2
理论 2
倒塌 2
肌@@ 2
肉@@ 2
室颤 2
两天 2
出汗 2
肝 2
外伤 2
肝@@ 2
异常 2
确诊 2
格雷戈里 2
哥们儿 2
传呼 2
电影 2
人质 2
语 2
删 2
藏@@ 2
见证 2
判断 2
粉@@ 2
脂@@ 2
医学院 2
院长 2
凡 2
端@@ 2
工作狂 2
不知 2
肆@@ 2
宣@@ 2
扬 2
胰腺 2
最少 2
弦 2
苏@@ 2
膜 2
伤心 2
臀 2
三种 2
之所以 2
扩大 2
堕 2
流血 2
莫西芬 2
复 2
肿瘤 2
病房 2
旧 2
走路 2
线@@ 2
抗@@ 2
肾@@ 2
衰竭 2
备忘录 2
甲@@ 2
过头 2
指 2
胸部 2
堆 2
不像 2
持@@ 2
第一个 2
过敏反应 2
药物 2
头孢菌素 2
奄@@ 2
李@@ 2
山@@ 2
31@@ 2
梅@@ 2
醒过来 2
假设 2
必有 2
兹 2
指认 2
莉斯 2
气味 2
左边 2
下雪 2
名@@ 2
妇 2
平台 2
迹象 2
鼓掌 2
造雪 2
机@@ 2
的士 2
冒出来 2
隆@@ 2
睡裙 2
垂@@ 2
口袋 2
停车场 2
摔下来 2
车顶 2
罐@@ 2
丹尼 2
公共@@ 2
压伤 2
刺 2
烫@@ 2
冻伤 2
局部 2
鼻纹 2
猎犬 2
叫做 2
铂金 2
链 2
手链 2
微@@ 2
虫@@ 2
用作 2
带子 2
容@@ 2
遛 2
吼 2
唔 2
37 2
小小 2
卑鄙 2
断面 2
弧度 2
小精灵 2
杀害 2
吉@@ 2
撞@@ 2
深度 2
曼哈顿 2
排查 2
丙@@ 2
商店 2
非法 2
日斑 2
漏 2
图@@ 2
馆 2
接种 2
克去 2
基金 2
善@@ 2
营 2
别停 2
募集 2
善款 2
慈善 2
折断 2
喷嘴 2
罐嘴 2
供@@ 2
不带 2
手套 2
在校 2
16 2
对比 2
标志 2
韦尔 2
林福德 2
直说 2
实习生 2
第一条 2
老老实实 2
十层 2
接待员 2
晚饭 2
S 2
异@@ 2
基 2
体内 2
潘 2
提取 2
返@@ 2
爱丽丝 2
登喜路 2
蒂娜 2
赞@@ 2
手指 2
融化 2
乐@@ 2
哎@@ 2
途@@ 2
邀@@ 2
狂 2
园 2
布莱斯 2
售@@ 2
圈 2
许可证 2
名叫 2
霍尔 2
爽 2
想干什么 2
打扫 2
嫌疑犯 2
讯 2
迷幻药 2
致@@ 2
停下 2
搞清楚 2
降落 2
勾勒 2
假如 2
1973 2
湖@@ 2
吸气 2
卡通人物 2
劫 2
小美人 2
佐@@ 2
枪击 2
游泳馆 2
认真 2
姑夫 2
赃款 2
捏造 2
海得 2
招@@ 2
调来 2
埋 2
乔治 2
阿拉丁 2
宝洞 2
300 2
栽赃 2
一分钟 2
忙@@ 2
换班 2
恩怨 2
波@@ 2
塔 2
霍湖 2
纪念 2
迪@@ 2
迪克 2
感同身受 2
抬头 2
云 2
捎 2
接近 2
K 2
海德 2
时刻 2
90 2
60 2
孙女 2
烟头 2
扔 2
制服 2
宇航员 2
败 2
这座 2
警服 2
守@@ 2
结案 2
厅 2
卷入 2
好处 2
圣@@ 2
减轻 2
融@@ 2
嘣 2
这年头 2
电玩 2
入住 2
千 2
苦@@ 2
简的 2
土壤 2
添加 2
回应 2
讯息 2
挂@@ 2
电子邮@@ 2
劫案 2
假扮 2
击毙 2
达克斯 2
本森 2
拉德 2
海洛因 2
徒 2
回头见 2
安妮 2
文艺复兴 2
命名 2
过五关斩六将 2
宿敌 2
手足之情 2
存世 2
余年 2
率领 2
征服 2
势不可挡 2
所到之处 2
生灵涂炭 2
探索 2
每过 2
连成 2
届时 2
通向 2
成就 2
不朽 2
功绩 2
付出 2
代价 2
随着 2
放逐 2
徘徊 2
不死 2
之身 2
所犯 2
之错 2
释放出来 2
至今 2
禽兽 2
非常感激 2
回报 2
长久以来 2
家园 2
贡献 2
毕竟 2
点路 2
有棵树 2
搬开 2
惩罚 2
弱小 2
关掉 2
炉火 2
懦夫 2
政界 2
妈呀 2
荒唐 2
不怕 2
鬼神 2
奇迹 2
远道而来 2
顺路 2
拜访 2
远 2
当地 2
寻找 2
史前 2
古器 2
大亨 2
闲得 2
发慌 2
寻思 2
雕像 2
你老 2
打交道 2
能坏 2
插 2
不是故意 2
刁难 2
电话线 2
仇家 2
全天候 2
IT 2
技术支持 2
唐尼是 2
迈克 2
进军 2
娱乐圈 2
祝福 2
小兄弟 2
蓝黑色 2
不相称 2
55th 2
百老汇 2
交界处 2
行窃 2
开工 2
这比 2
烤面包机 2
树立 2
典范 2
太重 2
做好事 2
手拿开 2
挠 2
特说 2
写过信 2
心里 2
迷茫 2
滑旱冰 2
半管 2
带劲 2
单手 2
独立 2
Hey 2
超酷 2
利率 2
飞速上升 2
业主 2
市场 2
低迷 2
称之为 2
耻辱 2
玩弄 2
股掌 2
摧毁 2
犯罪集团 2
光辉 2
岁月 2
干好 2
过来人 2
坐视不管 2
胡来 2
透彻 2
据我所知 2
焦点 2
畏首畏尾 2
其次 2
多纳 2
泰罗 2
跟个 2
空壳 2
脆弱 2
学会 2
纪念品 2
好不好 2
事态 2
方便 2
埋头苦干 2
价值连城 2
码头 2
车来拉货 2
我定 2
坏掉 2
每天晚上 2
凡事 2
有个度 2
口讯 2
举动 2
重量 2
卖掉 2
博物馆 2
没听说过 2
业务 2
遍及 2
各个领域 2
不动产 2
科技 2
医药品 2
原生态 2
追求 2
谨慎 2
部件 2
凑齐 2
肯尼 2
第四位 2
一眼 2
阿克拉 2
保重 2
那能 2
痛快 2
股东 2
会议 2
我快 2
听候 2
差遣 2
有钱有势 2
城里 2
热烈 2
几位 2
上个星期 2
木瓜 2
夜校 2
开课 2
上课 2
助教 2
恰好 2
个伴 2
骗过 2
大个 2
行为艺术 2
扭转乾坤 2
音讯 2
放假 2
消除 2
内疚 2
罢手 2
离不开 2
地铁 2
隆隆声 2
睡不着 2
满屋子 2
缘故 2
烦恼 2
定居 2
怀念 2
姐妹 2
连珠 2
众 2
千年 2
沉睡 2
苏醒 2
沉醉于 2
恰恰相反 2
离别 2
立刻 2
合而为一 2
睡 2
打声 2
宴会 2
重新组合 2
打游戏 2
擅离职守 2
偷懒 2
偷闲 2
摩托 2
换成 2
信不过 2
发脾气 2
抓好 2
藤蔓 2
告诫 2
实践 2
猴子 2
笼 2
野蛮 2
乱飞 2
撕成 2
聊天 2
长毛 2
错边 2
升降机 2
脾脏 2
天窗 2
建筑师 2
形象 2
保密性 2
雇来 2
市里 2
巡逻 2
杰出 2
遭受 2
说好 2
以此为荣 2
你明 2
客人 2
陛下 2
按时 2
手足 2
盛会 2
牌照 2
丑八怪 2
连个 2
乖巧 2
受过 2
训 2
领队 2
特来 2
早餐 2
故事片 2
性急 2
科迪要 2
堂娜 2
分手 2
中断 2
吉尔摩 2
插播 2
这篇 2
新闻报道 2
市内 2
纵横 2
奇异 2
报道 2
不断涌现 2
科幻小说 2
恢复 2
秩序 2
外出 2
想当 2
借口 2
捣鬼 2
别无它法 2
治安 2
破事 2
夜行者 2
目击者 2
炸开 2
当局 2
毫无 2
头绪 2
如今 2
正义感 2
拽 2
画面 2
比如说 2
快追 2
棒球 2
那伙 2
销声匿迹 2
行走 2
遇上 2
太妙 2
快来 2
烟雾 2
童子军 2
爱出风头 2
偏偏 2
乐子 2
厨师 2
致意 2
派对 2
慢点 2
真糟糕 2
重逢 2
瞳孔 2
黑曜石 2
牛脾气 2
还刻 2
南美洲 2
暗器 2
篝火 2
旁 2
当地人 2
相传 2
入口 2
使得 2
长生不老 2
余生 2
悔恨 2
用尽 2
金钱 2
复活 2
王朝 2
整件事 2
脱不了 2
干系 2
刻满 2
这一箭 2
快活 2
约束 2
满意 2
退一步 2
海阔天空 2
干杯 2
两只 2
不惜 2
破解 2
置疑 2
星象 2
异 2
度空间 2
塔楼 2
上空 2
三千年 2
顷刻 2
攻陷 2
几日 2
灭亡 2
哈雷彗星 2
这支 2
队伍 2
弟兄 2
背叛 2
第十三个 2
热心 2
受难者 2
值勤 2
32 2
警力 2
时光 2
好点 2
苗条 2
瞧瞧 2
小朋友 2
抽 2
打得 2
屁滚尿流 2
小鬼 2
松口 2
头盔 2
极了 2
不锈钢 2
小家伙 2
接招 2
快滚 2
肮脏 2
螃蟹 2
肉丸 2
劫匪 2
我救 2
别以为 2
厌倦 2
说教 2
行侠仗义 2
后悔 2
进攻 2
招术 2
正题 2
冲昏头脑 2
蒙蔽 2
双眼 2
暗夜 2
王子 2
自以为是 2
围着 2
万能 2
带领 2
走出 2
活不下去 2
照样 2
算了吧 2
子想些 2
逼人太甚 2
来去自由 2
玩具兵 2
听从指挥 2
合格 2
记恨 2
看着办 2
差得远 2
耐心 2
暴躁 2
坚决 2
赞同 2
不出 2
第十三 2
为时已晚 2
出门 2
出事 2
愚蠢 2
扛 2
保护者 2
优秀品质 2
得意 2
热情 2
领导者 2
必备 2
同情心 2
谦逊 2
闯 2
大祸 2
重出江湖 2
要冲 2
夺回 2
救出 2
合力 2
纽约市 2
日本 2
时买 2
好看 2
可少不了 2
有令 2
塔内 2
偷看 2
马克西 2
庆生 2
弥补 2
挫掉 2
锐气 2
前门 2
两分钟 2
过瘾 2
正想 2
弄坏 2
琼斯 2
得意之作 2
漩涡 2
前往 2
快让开 2
引领 2
少不了 2
Winters 2
摔坏 2
害人 2
害己 2
赎罪 2
送回 2
十三只 2
悲苦 2
介入 2
纷争 2
门将 2
再度 2
巨大 2
阻挡 2
效忠 2
义气 2
引过来 2
猎枪 2
关在 2
自相残杀 2
单挑 2
奉陪到底 2
便会 2
回老家 2
老爸 2
虽 2
挺能 2
打着 2
放心 2
破车 2
想来 2
太天真 2
之躯 2
破除 2
快递 2
喽 2
好哇 2
成果 2
我开 2
发型 2
卖力 2
讨好 2
名副其实 2
过关 2
不久 2
随身带 2
出路 2
老头子 2
找回 2
不太爽 2
鼻 2
鼻子 2
快给我 2
手帕 2
味儿 2
再放 2
一同 2
化身 2
惩恶扬善 2
除暴安良 2
来去无踪 2
妖魔鬼怪 2
忍者神龟 2
帅呆了 2
大约 2
洗个 2
夜班 2
人人为我 2
我为人人 2
流浪汉 2
芭@@ 2
遭到 2
点心 2
蒂 2
查利 2
男@@ 2
刃 2
霍奇斯 2
刀@@ 2
淘 2
调查员 2
当票 2
49 2
衬@@ 2
邮编 2
吃亏 2
天目 2
出老千 2
卷@@ 2
一大@@ 2
巷子 2
大获全胜 2
当掉 2
骗局 2
杀案 2
声明 2
日班 2
客厅 2
成分 2
表是 2
保险 2
工 2
汽车旅馆 2
老式 2
老派 2
扑克牌 2
录像带 2
手脚 2
拉塞尔 2
归@@ 2
14@@ 2
转盘 2
拉斯维加斯 2
教训 2
值 2
盗@@ 2
缉毒 2
两起 2
件物品 2
抢劫案 2
吹牛 2
劝 2
负罪感 2
一清二楚 2
盒 2
欣慰 2
敲@@ 2
愿@@ 2
遥@@ 2
玛@@ 1
谋 1
烊 1
肯@@ 1
学院 1
贸@@ 1
赤@@ 1
咱@@ 1
揭@@ 1
慧@@ 1
励 1
不着 1
径@@ 1
狱@@ 1
般 1
相反 1
聚 1
呗 1
阳@@ 1
尴@@ 1
尬 1
曲 1
何 1
黑 1
邀 1
顺 1
潮@@ 1
敛 1
庭@@ 1
审 1
慰 1
凿@@ 1
凿 1
宫@@ 1
殿 1
扑@@ 1
勉@@ 1
标 1
陌@@ 1
撤 1
墙@@ 1
废@@ 1
检察@@ 1
彼 1
称@@ 1
零 1
廊 1
乘 1
轮@@ 1
支 1
斤 1
初@@ 1
炙@@ 1
郁 1
傲@@ 1
资@@ 1
矮@@ 1
山 1
斜@@ 1
丫@@ 1
祼 1
草@@ 1
稿 1
腹 1
遭 1
迫@@ 1
摇@@ 1
嘿@@ 1
别无@@ 1
司 1
坑 1
贷 1
博 1
芬 1
闷 1
马克@@ 1
瑟@@ 1
丢@@ 1
办公@@ 1
挪@@ 1
患 1
拱 1
划 1
侍 1
寻 1
胜 1
乔 1
挡 1
必 1
珀 1
匿@@ 1
遮@@ 1
拦 1
屉 1
承@@ 1
恐@@ 1
慌 1
疲@@ 1
聊@@ 1
者@@ 1
漂@@ 1
尊@@ 1
敬 1
弗吉尼@@ 1
利亚 1
拨@@ 1
货@@ 1
裹 1
是@@ 1
截 1
稳 1
商 1
交 1
害者 1
沟@@ 1
糖 1
规 1
细 1
蛇@@ 1
迂@@ 1
终 1
丧@@ 1
梦@@ 1
吵 1
漏@@ 1
辖@@ 1
驳@@ 1
坦@@ 1
诚 1
事实@@ 1
卢 1
哀@@ 1
悼 1
策@@ 1
耸@@ 1
属@@ 1
谎 1
啤@@ 1
诚@@ 1
教@@ 1
育 1
睛 1
杰@@ 1
莴@@ 1
苣 1
炸 1
联邦@@ 1
移@@ 1
平 1
户 1
室@@ 1
因@@ 1
里克 1
堡 1
低 1
妹 1
挺@@ 1
议@@ 1
腾 1
叔@@ 1
叔 1
检@@ 1
硝@@ 1
铵 1
柴@@ 1
巨@@ 1
毁 1
% 1
危@@ 1
占@@ 1
喇@@ 1
叭 1
怒@@ 1
堵 1
蠢 1
觉@@ 1
娱@@ 1
暖 1
赋@@ 1
支@@ 1
谣@@ 1
唇 1
绷 1
懂@@ 1
蔽 1
瞄@@ 1
音@@ 1
瞒 1
荧@@ 1
貌@@ 1
似 1
洽@@ 1
抚 1
龙 1
歌@@ 1
禁 1
样的话 1
挡@@ 1
偏@@ 1
扰@@ 1
仅@@ 1
语@@ 1
短 1
幽@@ 1
浪@@ 1
鉴@@ 1
宁@@ 1
错@@ 1
居 1
派@@ 1
厕@@ 1
怂 1
笑@@ 1
不太@@ 1
C 1
磅 1
鬼 1
X@@ 1
射@@ 1
描 1
伤@@ 1
劣@@ 1
茶@@ 1
简@@ 1
疑 1
挟@@ 1
之情 1
凯@@ 1
愤@@ 1
嫉@@ 1
俗 1
六@@ 1
年级 1
忡@@ 1
忡 1
首 1
歌 1
试 1
妻@@ 1
龙@@ 1
兰@@ 1
迫 1
民 1
大道 1
I 1
峰@@ 1
面包@@ 1
箱@@ 1
暗@@ 1
辆 1
幸 1
挥@@ 1
阶@@ 1
霍 1
拉尔@@ 1
序 1
爆 1
悬 1
句 1
告@@ 1
崖@@ 1
财政@@ 1
有钱@@ 1
这一@@ 1
瞎@@ 1
扶 1
寒@@ 1
溜@@ 1
喔 1
滨 1
滚 1
逮@@ 1
米@@ 1
档@@ 1
广@@ 1
朝@@ 1
劝@@ 1
就绪 1
逞@@ 1
烈@@ 1
踢@@ 1
窗 1
录 1
射 1
【 1
咳@@ 1
嗽 1
】 1
订@@ 1
乘@@ 1
耗 1
帕柯@@ 1
暴@@ 1
目 1
撤@@ 1
职 1
批 1
柜 1
娘@@ 1
骑 1
疯@@ 1
陷@@ 1
故意 1
静 1
究 1
桥 1
益 1
软 1
漫画@@ 1
缺 1
售 1
饼@@ 1
义@@ 1
翔 1
翼 1
统@@ 1
哀 1
悲 1
诗 1
笼@@ 1
跃 1
我看来 1
兔@@ 1
弱 1
界@@ 1
限 1
游 1
鸟 1
望@@ 1
透@@ 1
己 1
掏@@ 1
甚@@ 1
蔼@@ 1
件事 1
揣@@ 1
蜂@@ 1
窝 1
履@@ 1
不可@@ 1
引 1
足 1
熊 1
站@@ 1
追@@ 1
绍 1
村@@ 1
弘 1
蓝@@ 1
棕 1
宝 1
象 1
哥@@ 1
修 1
割@@ 1
割 1
柜@@ 1
饥@@ 1
饿@@ 1
第二@@ 1
蹈@@ 1
惜@@ 1
猎@@ 1
痊@@ 1
愈 1
军@@ 1
纠@@ 1
缠@@ 1
僚@@ 1
政@@ 1
操@@ 1
屁 1
悚@@ 1
替@@ 1
尿@@ 1
哼 1
诱 1
辈 1
辉@@ 1
煌 1
待@@ 1
怀 1
冠@@ 1
辑 1
莎@@ 1
吊 1
魅@@ 1
子里 1
醒@@ 1
陪@@ 1
皆 1
旨 1
挑@@ 1
塑 1
无线@@ 1
观@@ 1
众@@ 1
票@@ 1
败@@ 1
扭@@ 1
府 1
悖 1
毫@@ 1
豪 1
选@@ 1
撩 1
垂 1
筋 1
义 1
鸡@@ 1
戏 1
享 1
睐 1
沃@@ 1
版 1
勒 1
燃@@ 1
焰 1
篇@@ 1
害@@ 1
羞 1
妆 1
约@@ 1
翰 1
琢@@ 1
磨 1
妆@@ 1
瞪@@ 1
豁@@ 1
齿@@ 1
不动 1
控 1
涉@@ 1
雅@@ 1
不开 1
床@@ 1
况@@ 1
丰@@ 1
为荣 1
融 1
禁@@ 1
娃@@ 1
娃 1
炮 1
冒@@ 1
烟 1
? 1
免 1
揪 1
舐 1
掐 1
技 1
贞 1
缘 1
抛 1
照@@ 1
覆@@ 1
回事 1
瓶 1
槟 1
责 1
X 1
工作@@ 1
超 1
练@@ 1
习 1
姐@@ 1
铁@@ 1
楚@@ 1
楚 1
艰@@ 1
苦 1
白@@ 1
采 1
沉 1
志 1
惑 1
吸 1
将@@ 1
娶 1
埃 1
品@@ 1
种@@ 1
鞭 1
说不@@ 1
握 1
责@@ 1
任@@ 1
赴 1
亮@@ 1
营@@ 1
伦@@ 1
顺@@ 1
评@@ 1
涨 1
伐 1
漓@@ 1
胜利 1
额@@ 1
歧 1
厌@@ 1
恶 1
举@@ 1
互 1
趣 1
啵 1
共同@@ 1
颖@@ 1
宇@@ 1
宙 1
灿@@ 1
弱@@ 1
冗@@ 1
繁@@ 1
百分@@ 1
百 1
孰@@ 1
劣 1
佳 1
髓 1
惊@@ 1
扮@@ 1
胜@@ 1
祝@@ 1
b@@ 1
v@@ 1
v 1
c@@ 1
m 1
祈@@ 1
碍 1
踏@@ 1
雨 1
挫@@ 1
竭@@ 1
愧 1
馨 1
: 1
鲜@@ 1
改 1
涨@@ 1
汤@@ 1
壁@@ 1
橱 1
伴 1
推 1
绅@@ 1
省 1
介 1
姓@@ 1
好几@@ 1
蹲@@ 1
不起 1
示 1
晚 1
羞@@ 1
午@@ 1
餐 1
莱 1
晶@@ 1
食@@ 1
伴@@ 1
塌@@ 1
糊@@ 1
涂 1
亡 1
星期@@ 1
午 1
茄@@ 1
加布@@ 1
环 1
泰@@ 1
参@@ 1
不见 1
巡 1
库@@ 1
毯@@ 1
蠢@@ 1
诊 1
施 1
郡 1
良@@ 1
蹲 1
伯@@ 1
辩 1
损@@ 1
砷@@ 1
领 1
曾@@ 1
褒@@ 1
逊 1
莲 1
侄@@ 1
蒲@@ 1
柏 1
伯 1
帐 1
挖@@ 1
寻@@ 1
封 1
询@@ 1
顾@@ 1
凝@@ 1
威@@ 1
夷 1
桥@@ 1
梁 1
然@@ 1
忍 1
担 1
爸@@ 1
网 1
氰@@ 1
厚 1
福 1
期@@ 1
妇@@ 1
两 1
艇 1
噩@@ 1
优秀@@ 1
嘉@@ 1
星期 1
候 1
载 1
庭 1
质@@ 1
脏@@ 1
龄@@ 1
非常@@ 1
慷@@ 1
慨 1
州@@ 1
讣@@ 1
政 1
休 1
洛@@ 1
杉@@ 1
矶 1
阵@@ 1
戒@@ 1
涕 1
瘫@@ 1
汁@@ 1
卢@@ 1
星@@ 1
难者 1
谐 1
琶 1
拨 1
绷@@ 1
糊 1
储@@ 1
枢 1
紊@@ 1
砾 1
疫 1
田 1
吵@@ 1
不敢@@ 1
显@@ 1
染 1
援@@ 1
莓 1
兜@@ 1
菜 1
y@@ 1
u@@ 1
撬@@ 1
束@@ 1
擒 1
瘸@@ 1
霉@@ 1
浴@@ 1
涤 1
促@@ 1
销 1
欠 1
艳@@ 1
列@@ 1
肆 1
概@@ 1
括 1
惨 1
诊@@ 1
罗 1
挥 1
拳@@ 1
吨 1
婚@@ 1
笨@@ 1
遵@@ 1
6@@ 1
版@@ 1
V 1
若@@ 1
才@@ 1
锁 1
符@@ 1
聘@@ 1
探 1
咙 1
氨 1
跳 1
窦@@ 1
稻@@ 1
轰@@ 1
鸣 1
奏 1
沙@@ 1
匪 1
胆 1
圆@@ 1
钾 1
脉@@ 1
堵@@ 1
灌@@ 1
膨@@ 1
胀 1
肉 1
骼 1
上升 1
宿@@ 1
逐@@ 1
渐 1
在一起 1
考@@ 1
崔@@ 1
佛 1
狐 1
乌@@ 1
埃尔 1
牙@@ 1
赶 1
之处 1
恐怖@@ 1
降@@ 1
猿@@ 1
民@@ 1
党 1
疗@@ 1
淀@@ 1
肪@@ 1
捧 1
懈@@ 1
典 1
撑@@ 1
腰 1
固 1
既 1
端 1
反 1
磁 1
群 1
狠 1
琴@@ 1
坠@@ 1
肛@@ 1
恨 1
鼠@@ 1
灵 1
霉 1
怀@@ 1
孕 1
精 1
刮@@ 1
怂@@ 1
恿 1
避孕@@ 1
岳@@ 1
麦克@@ 1
堕@@ 1
稀@@ 1
释@@ 1
综@@ 1
癌 1
院 1
疗 1
洗 1
绵 1
浴 1
蒙 1
注射 1
癌@@ 1
雌@@ 1
素 1
崩@@ 1
溃 1
置@@ 1
沙 1
全力 1
渺@@ 1
茫 1
会儿 1
嗜@@ 1
杆@@ 1
妥 1
垮 1
臂 1
肿@@ 1
略 1
磁@@ 1
嗜 1
芽@@ 1
肿 1
固@@ 1
醇 1
过敏@@ 1
链@@ 1
憩 1
哪去 1
防 1
甘@@ 1
蹊@@ 1
跷 1
材 1
颜@@ 1
故@@ 1
梅 1
甘 1
傻@@ 1
蔡@@ 1
环@@ 1
苛@@ 1
板@@ 1
巫@@ 1
婆 1
出风头 1
避@@ 1
懈 1
寄@@ 1
置 1
鸳@@ 1
鸯 1
闯@@ 1
戳@@ 1
戳 1
菲@@ 1
辨 1
鞋@@ 1
L 1
滴 1
刹@@ 1
冬 1
脚 1
滑@@ 1
姓 1
虐 1
香 1
溢 1
夹@@ 1
凹@@ 1
缘@@ 1
桑@@ 1
汽@@ 1
－ 1
御 1
腕 1
猛@@ 1
灼@@ 1
形@@ 1
冰@@ 1
冻 1
锁@@ 1
骨 1
犬@@ 1
科 1
具@@ 1
吓 1
蜥@@ 1
蜴 1
皮 1
吡@@ 1
啉 1
驱@@ 1
虱 1
拣@@ 1
遛@@ 1
趁@@ 1
惯 1
敲 1
冠 1
邪@@ 1
启@@ 1
夹 1
肠@@ 1
系@@ 1
腹@@ 1
液 1
右 1
肩@@ 1
锋@@ 1
虎@@ 1
船@@ 1
烯@@ 1
缝 1
粉 1
煤@@ 1
盐 1
硼@@ 1
砂 1
矾 1
苗@@ 1
贴 1
尺@@ 1
弃@@ 1
圆 1
艺 1
翻 1
椅 1
滴@@ 1
黛@@ 1
富@@ 1
汗 1
痹@@ 1
O@@ 1
IS 1
叉 1
疫@@ 1
森 1
He@@ 1
s@@ 1
g@@ 1
际 1
慈@@ 1
捐@@ 1
橄@@ 1
榄@@ 1
划@@ 1
瓜@@ 1
葛 1
旗@@ 1
帜 1
湖 1
势@@ 1
社 1
沿@@ 1
脆 1
碎 1
罐 1
钝 1
壁 1
街@@ 1
蚀 1
冬@@ 1
景@@ 1
贮@@ 1
弯 1
粘 1
阀@@ 1
帽@@ 1
沿 1
拼@@ 1
瑞 1
学家 1
趾 1
构@@ 1
G@@ 1
胺 1
潮 1
狂@@ 1
诱@@ 1
L@@ 1
S@@ 1
T 1
彼@@ 1
页 1
钟 1
一点@@ 1
贵@@ 1
族 1
A@@ 1
I@@ 1
F@@ 1
鱿@@ 1
l@@ 1
e@@ 1
w 1
氮@@ 1
修@@ 1
席@@ 1
函 1
暑@@ 1
扔@@ 1
胃 1
栏@@ 1
杆 1
篮@@ 1
项@@ 1
硬@@ 1
六 1
木@@ 1
炭 1
颈@@ 1
烧@@ 1
顶@@ 1
果@@ 1
帝@@ 1
蓬 1
逼@@ 1
急 1
烫 1
咬@@ 1
幻@@ 1
抑制@@ 1
使@@ 1
醉@@ 1
底@@ 1
奸 1
琳 1
盖@@ 1
堪@@ 1
B@@ 1
迷@@ 1
梭 1
俘@@ 1
牺@@ 1
牲@@ 1
炼@@ 1
彻@@ 1
08 1
渣 1
淹@@ 1
课 1
茨 1
煎@@ 1
遭@@ 1
竟 1
祝 1
丹尼@@ 1
奎@@ 1
碰@@ 1
姑@@ 1
滥 1
泳 1
逮 1
泳@@ 1
垫@@ 1
吐 1
韦@@ 1
喻 1
姜@@ 1
饼 1
令@@ 1
铲@@ 1
胚@@ 1
轻 1
材@@ 1
稍 1
粒 1
伸@@ 1
讽@@ 1
砰 1
速@@ 1
逸 1
果 1
职@@ 1
古@@ 1
摩 1
黎@@ 1
捍@@ 1
宪@@ 1
尼@@ 1
欢@@ 1
恋 1
臭@@ 1
熏@@ 1
囚@@ 1
母@@ 1
针 1
乡 1
云@@ 1
朵 1
顿 1
敏 1
馅 1
兑@@ 1
骚@@ 1
稳@@ 1
/ 1
止@@ 1
蝙@@ 1
蝠 1
睹 1
拾@@ 1
析 1
扣@@ 1
扳@@ 1
烦@@ 1
烟@@ 1
缸 1
奶@@ 1
奶 1
卫@@ 1
昆 1
区@@ 1
糗 1
轨 1
嬉@@ 1
欲@@ 1
仙 1
挣 1
五 1
圭@@ 1
餐@@ 1
蛤@@ 1
蜊 1
哨 1
砝@@ 1
茶 1
洁 1
崇@@ 1
判@@ 1
蜡@@ 1
烛 1
泡@@ 1
络 1
V@@ 1
兴 1
烤@@ 1
擂 1
恼 1
创 1
尝@@ 1
柔@@ 1
酪 1
恰@@ 1
鲜 1
番@@ 1
茄 1
瓜 1
萝@@ 1
卜 1
豆 1
芳@@ 1
加 1
麻 1
猪 1
配@@ 1
款@@ 1
爹 1
诉@@ 1
闪 1
良 1
揪@@ 1
孬@@ 1
鼠 1
诬 1
暴 1
逢 1
毕@@ 1
忧 1
徽 1
坏@@ 1
吐@@ 1
围 1
迅@@ 1
风头 1
院@@ 1
丽@@ 1
沉@@ 1
套@@ 1
饭 1
肖@@ 1
滞@@ 1
衫@@ 1
褴@@ 1
褛 1
沧@@ 1
桑 1
维 1
鼓@@ 1
.@@ 1
氏@@ 1
舍 1
碟@@ 1
谍 1
立 1
尚@@ 1
爬 1
掌 1
临@@ 1
愁@@ 1
咖@@ 1
啡@@ 1
办@@ 1
公 1
东 1
印@@ 1
奖@@ 1
央 1
脊@@ 1
椎 1
宽 1
净@@ 1
般@@ 1
店@@ 1
原 1
衫 1
恤 1
牛@@ 1
仔@@ 1
克拉 1
铭@@ 1
文 1
磨@@ 1
损 1
全 1
犹@@ 1
奈@@ 1
驾@@ 1
抵@@ 1
贷@@ 1
赎@@ 1
附@@ 1
仁@@ 1
兄 1
鲨@@ 1
串@@ 1
诈@@ 1
员@@ 1
注@@ 1
掷 1
素@@ 1
不相@@ 1
季@@ 1
灭@@ 1
响 1
丧 1
泉 1
俗@@ 1
巧@@ 1
寡@@ 1
述 1
切@@ 1
锏 1
庆@@ 1
索@@ 1
保险@@ 1
蒙@@ 1
倍 1
动过@@ 1
魔@@ 1
术@@ 1
波 1
讯@@ 1
围@@ 1
余@@ 1
丘 1
银@@ 1
脊 1
需@@ 1
弟 1
拉克 1
频@@ 1
钻 1
电子@@ 1
产@@ 1
旅@@ 1
忠@@ 1
职守 1
许@@ 1
屈@@ 1
巷@@ 1
背 1
个@@ 1
耀 1
凶@@ 1
填 1
衣 1
领@@ 1
医 1
迈@@ 1
贩@@ 1
歹@@ 1
无名@@ 1
卒 1
窃@@ 1
孝@@ 1
宗 1
趟 1
弹 1
遂 1
申@@ 1
职业@@ 1
这么@@ 1
瘾@@ 1
君@@ 1
滋@@ 1
润 1
剩 1
浪 1
嫁@@ 1
祸 1
赃@@ 1
笔@@ 1
仍@@ 1
债@@ 1
累 1
赚 1
某 1
箱 1
纪 1
狠@@ 1
态@@ 1
而来 1
并不@@ 1
严@@ 1
刑@@ 1
拷@@ 1
于@@ 1
搏 1
闲 1
B 1
侵@@ 1
